{
  "version": "1.0",
  "truncation": null,
  "padding": null,
  "added_tokens": [
    {
      "id": 0,
      "content": "<pad>",
      "single_word": false,
      "lstrip": false,
      "rstrip": false,
      "normalized": false,
      "special": true
    },
    {
      "id": 1,
      "content": "<unk>",
      "single_word": false,
      "lstrip": false,
      "rstrip": false,
      "normalized": false,
      "special": true
    },
    {
      "id": 2,
      "content": "<bos>",
      "single_word": false,
      "lstrip": false,
      "rstrip": false,
      "normalized": false,
      "special": true
    },
    {
      "id": 3,
      "content": "<eos>",
      "single_word": false,
      "lstrip": false,
      "rstrip": false,
      "normalized": false,
      "special": true
    },
    {
      "id": 4,
      "content": "<user>",
      "single_word": false,
      "lstrip": false,
      "rstrip": false,
      "normalized": false,
      "special": true
    },
    {
      "id": 5,
      "content": "<assistant>",
      "single_word": false,
      "lstrip": false,
      "rstrip": false,
      "normalized": false,
      "special": true
    }
  ],
  "normalizer": {
    "type": "Sequence",
    "normalizers": [
      {
        "type": "NFKC"
      },
      {
        "type": "Replace",
        "pattern": {
          "String": " "
        },
        "content": " "
      },
      {
        "type": "Strip",
        "strip_left": true,
        "strip_right": true
      }
    ]
  },
  "pre_tokenizer": {
    "type": "ByteLevel",
    "add_prefix_space": false,
    "trim_offsets": true,
    "use_regex": true
  },
  "post_processor": null,
  "decoder": {
    "type": "ByteLevel",
    "add_prefix_space": true,
    "trim_offsets": true,
    "use_regex": true
  },
  "model": {
    "type": "BPE",
    "dropout": null,
    "unk_token": "<unk>",
    "continuing_subword_prefix": null,
    "end_of_word_suffix": null,
    "fuse_unk": false,
    "byte_fallback": false,
    "ignore_merges": false,
    "vocab": {
      "<pad>": 0,
      "<unk>": 1,
      "<bos>": 2,
      "<eos>": 3,
      "<user>": 4,
      "<assistant>": 5,
      "!": 6,
      "\"": 7,
      "#": 8,
      "$": 9,
      "%": 10,
      "&": 11,
      "'": 12,
      "(": 13,
      ")": 14,
      "*": 15,
      "+": 16,
      ",": 17,
      "-": 18,
      ".": 19,
      "/": 20,
      "0": 21,
      "1": 22,
      "2": 23,
      "3": 24,
      "4": 25,
      "5": 26,
      "6": 27,
      "7": 28,
      "8": 29,
      "9": 30,
      ":": 31,
      ";": 32,
      "<": 33,
      "=": 34,
      ">": 35,
      "?": 36,
      "@": 37,
      "A": 38,
      "B": 39,
      "C": 40,
      "D": 41,
      "E": 42,
      "F": 43,
      "G": 44,
      "H": 45,
      "I": 46,
      "J": 47,
      "K": 48,
      "L": 49,
      "M": 50,
      "N": 51,
      "O": 52,
      "P": 53,
      "Q": 54,
      "R": 55,
      "S": 56,
      "T": 57,
      "U": 58,
      "V": 59,
      "W": 60,
      "X": 61,
      "Y": 62,
      "Z": 63,
      "[": 64,
      "\\": 65,
      "]": 66,
      "^": 67,
      "_": 68,
      "`": 69,
      "a": 70,
      "b": 71,
      "c": 72,
      "d": 73,
      "e": 74,
      "f": 75,
      "g": 76,
      "h": 77,
      "i": 78,
      "j": 79,
      "k": 80,
      "l": 81,
      "m": 82,
      "n": 83,
      "o": 84,
      "p": 85,
      "q": 86,
      "r": 87,
      "s": 88,
      "t": 89,
      "u": 90,
      "v": 91,
      "w": 92,
      "x": 93,
      "y": 94,
      "z": 95,
      "{": 96,
      "|": 97,
      "}": 98,
      "~": 99,
      "¡": 100,
      "¢": 101,
      "£": 102,
      "¤": 103,
      "¥": 104,
      "¦": 105,
      "§": 106,
      "¨": 107,
      "©": 108,
      "ª": 109,
      "«": 110,
      "¬": 111,
      "®": 112,
      "¯": 113,
      "°": 114,
      "±": 115,
      "²": 116,
      "³": 117,
      "´": 118,
      "µ": 119,
      "¶": 120,
      "·": 121,
      "¸": 122,
      "¹": 123,
      "º": 124,
      "»": 125,
      "¼": 126,
      "½": 127,
      "¾": 128,
      "¿": 129,
      "Â": 130,
      "Ã": 131,
      "Ä": 132,
      "Å": 133,
      "Ç": 134,
      "È": 135,
      "É": 136,
      "Ê": 137,
      "Ë": 138,
      "Ì": 139,
      "Î": 140,
      "Ï": 141,
      "Ð": 142,
      "Ñ": 143,
      "Ö": 144,
      "×": 145,
      "Ø": 146,
      "Ù": 147,
      "Ú": 148,
      "Û": 149,
      "à": 150,
      "á": 151,
      "â": 152,
      "ã": 153,
      "ä": 154,
      "å": 155,
      "æ": 156,
      "ç": 157,
      "è": 158,
      "é": 159,
      "ê": 160,
      "ë": 161,
      "ì": 162,
      "í": 163,
      "ï": 164,
      "ð": 165,
      "ô": 166,
      "Ć": 167,
      "Ċ": 168,
      "Ę": 169,
      "Ġ": 170,
      "Ģ": 171,
      "ģ": 172,
      "Ĥ": 173,
      "ĥ": 174,
      "Ħ": 175,
      "ħ": 176,
      "Ĩ": 177,
      "ĩ": 178,
      "Ī": 179,
      "ī": 180,
      "Ĭ": 181,
      "ĭ": 182,
      "Į": 183,
      "į": 184,
      "İ": 185,
      "ı": 186,
      "Ĳ": 187,
      "ĳ": 188,
      "Ĵ": 189,
      "ĵ": 190,
      "Ķ": 191,
      "ķ": 192,
      "ĸ": 193,
      "Ĺ": 194,
      "ĺ": 195,
      "Ļ": 196,
      "ļ": 197,
      "Ľ": 198,
      "ľ": 199,
      "Ŀ": 200,
      "ŀ": 201,
      "Ł": 202,
      "ł": 203,
      "Ń": 204,
      "Ġt": 205,
      "he": 206,
      "Ġa": 207,
      "Ġs": 208,
      "in": 209,
      "Ġthe": 210,
      "nd": 211,
      "Ġw": 212,
      "re": 213,
      "er": 214,
      "Ġo": 215,
      "Ġc": 216,
      "ed": 217,
      "Ġand": 218,
      "Ġb": 219,
      "Ġto": 220,
      "it": 221,
      "at": 222,
      "Ġf": 223,
      "ou": 224,
      "an": 225,
      "is": 226,
      "or": 227,
      "on": 228,
      "Ġm": 229,
      "as": 230,
      "Ġp": 231,
      "Ġh": 232,
      "ing": 233,
      "Ġd": 234,
      "en": 235,
      "es": 236,
      "Ġl": 237,
      "ar": 238,
      "om": 239,
      "al": 240,
      "ĠT": 241,
      "Ġin": 242,
      "le": 243,
      "Ġhe": 244,
      "Ġg": 245,
      "il": 246,
      "Ġn": 247,
      "im": 248,
      "ay": 249,
      "Ġth": 250,
      "Ġof": 251,
      "us": 252,
      "ic": 253,
      "id": 254,
      "Ġwas": 255,
      "et": 256,
      "Ġy": 257,
      "Ġe": 258,
      "ĠS": 259,
      "ut": 260,
      "el": 261,
      "ion": 262,
      "Ġyou": 263,
      "Ġst": 264,
      "ant": 265,
      "ow": 266,
      "ot": 267,
      "Ġit": 268,
      "ad": 269,
      "ĠThe": 270,
      "ac": 271,
      "ĠI": 272,
      "ent": 273,
      "ve": 274,
      "Ġre": 275,
      "am": 276,
      "Ġbe": 277,
      "ver": 278,
      "ir": 279,
      "ro": 280,
      "ist": 281,
      "ig": 282,
      "Ġis": 283,
      "ly": 284,
      "ĠH": 285,
      "Ġthat": 286,
      "ld": 287,
      "Ġsa": 288,
      "ith": 289,
      "Ġon": 290,
      "Ġfor": 291,
      "Ġwith": 292,
      "Ġha": 293,
      "ke": 294,
      "ri": 295,
      "ec": 296,
      "oo": 297,
      "un": 298,
      "ass": 299,
      "st": 300,
      "Ġ\"": 301,
      "pp": 302,
      "Ġher": 303,
      "ce": 304,
      "ĠHe": 305,
      "Ġsh": 306,
      "Ġas": 307,
      "user": 308,
      "Ġan": 309,
      "ĠShe": 310,
      "ul": 311,
      "istant": 312,
      "ur": 313,
      "assistant": 314,
      "ol": 315,
      "Ġr": 316,
      "Ġwh": 317,
      "if": 318,
      "ĠL": 319,
      "Ġal": 320,
      "ould": 321,
      "ĠThey": 322,
      "ĠA": 323,
      "'s": 324,
      "Ġpl": 325,
      "Ġcan": 326,
      "her": 327,
      "Ġu": 328,
      "Ġare": 329,
      "Ġsaid": 330,
      "Ġso": 331,
      "ch": 332,
      "ily": 333,
      "ation": 334,
      "end": 335,
      "ked": 336,
      "ter": 337,
      "Ġwe": 338,
      "se": 339,
      "Ġex": 340,
      "ĠB": 341,
      "ort": 342,
      "Ġshe": 343,
      "ain": 344,
      "are": 345,
      "ore": 346,
      "ime": 347,
      "ome": 348,
      "ĠO": 349,
      "ag": 350,
      "Ġne": 351,
      "ht": 352,
      "Ġhis": 353,
      "um": 354,
      "ĠM": 355,
      "ĠW": 356,
      "Ġnot": 357,
      "very": 358,
      "Ġup": 359,
      "Ġthey": 360,
      "Ġli": 361,
      "ory": 362,
      "Ġme": 363,
      "Ġor": 364,
      "Ġday": 365,
      "Ġcon": 366,
      "Ġdo": 367,
      "ure": 368,
      "ill": 369,
      "ct": 370,
      "ab": 371,
      "ide": 372,
      "Ġk": 373,
      "qu": 374,
      "Ġplay": 375,
      "ate": 376,
      "The": 377,
      "Ġpro": 378,
      "od": 379,
      "Ġus": 380,
      "ple": 381,
      "ĠOn": 382,
      "all": 383,
      "Ġhad": 384,
      "Ġyour": 385,
      "ell": 386,
      "ound": 387,
      "ĠC": 388,
      "ack": 389,
      "ess": 390,
      "ake": 391,
      "rom": 392,
      "ry": 393,
      "Ġv": 394,
      "ĠLily": 395,
      "riend": 396,
      "Ġcom": 397,
      "Ġhave": 398,
      "Ġsp": 399,
      "Ġfriend": 400,
      "Ġbut": 401,
      "Ġwant": 402,
      "Ġmom": 403,
      "Ġstory": 404,
      "Ġthere": 405,
      "my": 406,
      "est": 407,
      "Ġtime": 408,
      "art": 409,
      "ĠIt": 410,
      "Ġse": 411,
      "ers": 412,
      "itt": 413,
      "ight": 414,
      "Ġat": 415,
      "ard": 416,
      "em": 417,
      "Ġhapp": 418,
      "ame": 419,
      "Ġsm": 420,
      "Ġlo": 421,
      "Ġsu": 422,
      "ind": 423,
      "ect": 424,
      "Ġtheir": 425,
      "Ġvery": 426,
      "ĠĊ": 427,
      "Ġch": 428,
      "'t": 429,
      "and": 430,
      "pl": 431,
      "Ġle": 432,
      "pt": 433,
      "Ġj": 434,
      "out": 435,
      "ittle": 436,
      "Ġhel": 437,
      "Ġlittle": 438,
      "nt": 439,
      "os": 440,
      "Ġwor": 441,
      "ite": 442,
      "Ġgo": 443,
      "Ġar": 444,
      "Ġout": 445,
      "op": 446,
      ".\"": 447,
      "ved": 448,
      "Ġthem": 449,
      "ĠP": 450,
      "Ġloo": 451,
      "hen": 452,
      "ep": 453,
      "Ġtr": 454,
      "ity": 455,
      "ive": 456,
      "Ġall": 457,
      "Ġhelp": 458,
      "ther": 459,
      "ck": 460,
      "Ġbig": 461,
      "ug": 462,
      "Ġfrom": 463,
      "Ġwere": 464,
      "Ġhappy": 465,
      "Ġcould": 466,
      "Ġim": 467,
      "ud": 468,
      "Ġab": 469,
      "ap": 470,
      "ĠD": 471,
      "ood": 472,
      "th": 473,
      "Ġcl": 474,
      "Ġsc": 475,
      "ere": 476,
      "ĠE": 477,
      "Ġsaw": 478,
      "ang": 479,
      "ies": 480,
      "ial": 481,
      "Ġsome": 482,
      "ĠJ": 483,
      "Ġkn": 484,
      "oug": 485,
      "ust": 486,
      "You": 487,
      "!\"": 488,
      "king": 489,
      "Ġgr": 490,
      "iz": 491,
      "Ġby": 492,
      "ment": 493,
      "Ġen": 494,
      "Ġint": 495,
      "Ġman": 496,
      "ine": 497,
      "Ġother": 498,
      "Ġshort": 499,
      "ĠF": 500,
      "Ġwould": 501,
      "ays": 502,
      "one": 503,
      "Ġtoo": 504,
      "ĠOnce": 505,
      "age": 506,
      "Ġbo": 507,
      "Ġhim": 508,
      "ach": 509,
      "ice": 510,
      "Ġlike": 511,
      "Ġfun": 512,
      "Ġde": 513,
      "ong": 514,
      "ile": 515,
      "res": 516,
      "Ġfe": 517,
      "ally": 518,
      "Ġmore": 519,
      "Ġthis": 520,
      "irl": 521,
      "ions": 522,
      "Ġpr": 523,
      "Ġad": 524,
      "Ġro": 525,
      "ful": 526,
      "hat": 527,
      "Ġ(": 528,
      "ĠTim": 529,
      "ie": 530,
      "Ġupon": 531,
      "Ġdid": 532,
      "Ġgirl": 533,
      "ue": 534,
      "ark": 535,
      "hed": 536,
      "Ġwanted": 537,
      "ast": 538,
      "Ġbr": 539,
      "ous": 540,
      "iv": 541,
      "act": 542,
      "Ġun": 543,
      "own": 544,
      "Ġwill": 545,
      "ĠYou": 546,
      "ĠG": 547,
      "Ġwhat": 548,
      "able": 549,
      "ks": 550,
      "av": 551,
      "our": 552,
      "Ġmake": 553,
      "Ġback": 554,
      "eth": 555,
      "ings": 556,
      "Ġ1": 557,
      "ĠR": 558,
      "ace": 559,
      "Ġimp": 560,
      "get": 561,
      "low": 562,
      "Ġqu": 563,
      "Ġsim": 564,
      "per": 565,
      "reat": 566,
      "ire": 567,
      "Ġmy": 568,
      "--": 569,
      "Ġnew": 570,
      "orm": 571,
      "ase": 572,
      "Ġabout": 573,
      "ich": 574,
      "?\"": 575,
      "Ġany": 576,
      "ĠTh": 577,
      "Ġif": 578,
      "Ġwent": 579,
      "ree": 580,
      "side": 581,
      "Ġstart": 582,
      "so": 583,
      "ff": 584,
      "ĠBen": 585,
      "Ġfriends": 586,
      "Ġcont": 587,
      "amed": 588,
      "ĠOne": 589,
      "Ġag": 590,
      "iled": 591,
      "Ġmo": 592,
      "Ġ=": 593,
      "Ġone": 594,
      "rite": 595,
      "Ġno": 596,
      "ĠTom": 597,
      "Ġwho": 598,
      "lo": 599,
      "Ġwhen": 600,
      "Ġaround": 601,
      "Ġcomp": 602,
      "Ġhow": 603,
      "Ġuse": 604,
      "ick": 605,
      "arn": 606,
      "ical": 607,
      "Ġsee": 608,
      "ade": 609,
      "Ġget": 610,
      "ult": 611,
      "Ġres": 612,
      "Ġinc": 613,
      "ble": 614,
      "Ġstr": 615,
      "Ġnamed": 616,
      "Ġbed": 617,
      "nder": 618,
      "Ġco": 619,
      "Ġneed": 620,
      "Ġpre": 621,
      "Ġsom": 622,
      "ave": 623,
      "ak": 624,
      "elt": 625,
      "Ġapp": 626,
      "Ġspec": 627,
      "Ġsmiled": 628,
      "Ġke": 629,
      "ĠN": 630,
      "iff": 631,
      "ance": 632,
      "``": 633,
      "ne": 634,
      "ater": 635,
      "Ġthen": 636,
      "Ġasked": 637,
      "ations": 638,
      "Ġwhich": 639,
      "Ġdec": 640,
      "Ġhas": 641,
      "ough": 642,
      "ip": 643,
      "Ġgood": 644,
      "Ġloved": 645,
      "Ġaw": 646,
      "ited": 647,
      "Ġthan": 648,
      "Ġcar": 649,
      "Ġev": 650,
      "ird": 651,
      "form": 652,
      "Ġtoy": 653,
      "cc": 654,
      "xt": 655,
      "Ġfelt": 656,
      "Ġsimple": 657,
      "ary": 658,
      "ence": 659,
      "Ġbec": 660,
      "Ġover": 661,
      "ise": 662,
      "Ġinto": 663,
      "âĤ": 664,
      "âĤ¬": 665,
      "Ġdiff": 666,
      "Ġlooked": 667,
      "Ã¢": 668,
      "Ġalso": 669,
      "ĠTimmy": 670,
      "og": 671,
      "Ġ-": 672,
      "ared": 673,
      "pen": 674,
      "ĠSh": 675,
      "Ġbet": 676,
      "here": 677,
      "ĠThis": 678,
      "ely": 679,
      "ething": 680,
      "Ġsuch": 681,
      ",\"": 682,
      "Ġfriendly": 683,
      "Ġmade": 684,
      "ish": 685,
      "Ġlearn": 686,
      "Ġsomething": 687,
      "ax": 688,
      "ans": 689,
      "Ġknow": 690,
      "ge": 691,
      "time": 692,
      "gether": 693,
      "Ġfind": 694,
      "Ġboy": 695,
      "ĠBut": 696,
      "Ġpe": 697,
      "ign": 698,
      "ĠWrite": 699,
      "int": 700,
      "Ġam": 701,
      "ber": 702,
      "Ġ2": 703,
      "Ġpo": 704,
      "Ġits": 705,
      "ress": 706,
      "ction": 707,
      "Ġbird": 708,
      "Ġmod": 709,
      "aus": 710,
      "Ġaway": 711,
      "ll": 712,
      "oud": 713,
      "Ġagain": 714,
      "Ġtogether": 715,
      "Ġstarted": 716,
      "Ġexc": 717,
      "ild": 718,
      "Ġdat": 719,
      "ft": 720,
      "ĠTell": 721,
      "uch": 722,
      "ia": 723,
      "Ġte": 724,
      "Ġbu": 725,
      "Ġfound": 726,
      "Ġbedtime": 727,
      "Ġeach": 728,
      "Ġsy": 729,
      "ĠShare": 730,
      "vel": 731,
      "Ġran": 732,
      "ated": 733,
      "Ġdown": 734,
      "ought": 735,
      "Ġevery": 736,
      "ook": 737,
      "Ġmay": 738,
      "Ġtw": 739,
      "Ġcol": 740,
      "ific": 741,
      "ors": 742,
      "Ġsw": 743,
      "ra": 744,
      "ĠIn": 745,
      "Ġexpl": 746,
      "Ġsays": 747,
      "hn": 748,
      "Ġput": 749,
      "Ġhome": 750,
      "elf": 751,
      "Ġunder": 752,
      "Ġthings": 753,
      "als": 754,
      "Ġmany": 755,
      "Ġla": 756,
      "uc": 757,
      "ail": 758,
      "Ġpark": 759,
      "Ġfeel": 760,
      "ĠU": 761,
      "Ġper": 762,
      "Ġwal": 763,
      "Ġsad": 764,
      "urn": 765,
      "Ġdis": 766,
      "Ġtake": 767,
      "Ġshould": 768,
      "00": 769,
      "Ġused": 770,
      "Ġdiffere": 771,
      "les": 772,
      "oth": 773,
      "pped": 774,
      "ient": 775,
      "ition": 776,
      "Ġimport": 777,
      "ried": 778,
      "Ġoff": 779,
      "ject": 780,
      "ided": 781,
      "ause": 782,
      "ear": 783,
      "Ġrun": 784,
      "Ġhug": 785,
      "oc": 786,
      "lud": 787,
      "ount": 788,
      "gr": 789,
      "Ġplaying": 790,
      "ob": 791,
      "ving": 792,
      "Ġjust": 793,
      "Ġcare": 794,
      "igh": 795,
      "Ġhand": 796,
      "ces": 797,
      "ub": 798,
      "One": 799,
      "ny": 800,
      "Lily": 801,
      "ways": 802,
      "Ġcomm": 803,
      "ode": 804,
      "uck": 805,
      "Ġprov": 806,
      "ious": 807,
      "Ġgot": 808,
      "fter": 809,
      "ouse": 810,
      "ew": 811,
      "Ġcre": 812,
      "ens": 813,
      "Ġexam": 814,
      "Ġsk": 815,
      "stem": 816,
      "Ġalways": 817,
      "Ġdog": 818,
      "Ġdata": 819,
      "Ġopen": 820,
      "ĠHow": 821,
      "Ġinclud": 822,
      "Ġway": 823,
      "other": 824,
      "Ġdes": 825,
      "Ġexcited": 826,
      "ĠWhat": 827,
      "ĠAn": 828,
      "yp": 829,
      "ons": 830,
      "wn": 831,
      "ures": 832,
      "Ġusing": 833,
      "'m": 834,
      "ople": 835,
      "ink": 836,
      "Ġlist": 837,
      "na": 838,
      "ara": 839,
      "aking": 840,
      "Ġmuch": 841,
      "Ġcame": 842,
      "Ġliked": 843,
      "Ġdifferent": 844,
      "Ġdecided": 845,
      "ĠMom": 846,
      "Ġthr": 847,
      "Ġche": 848,
      "Ġacc": 849,
      "Ġthought": 850,
      "ord": 851,
      "Ġbl": 852,
      "ict": 853,
      "Ġimportant": 854,
      "Ġtry": 855,
      "Ġlong": 856,
      "Ġwork": 857,
      "Ġold": 858,
      "vent": 859,
      "atch": 860,
      "Ġshow": 861,
      "Ġwater": 862,
      "Ġtwo": 863,
      "uct": 864,
      "ange": 865,
      "Ġpart": 866,
      "Ġpeople": 867,
      "Ġset": 868,
      "Ġlot": 869,
      "den": 870,
      "Ġscared": 871,
      "Ġbest": 872,
      "Ġsystem": 873,
      "hy": 874,
      "Ġ3": 875,
      "Ġsmall": 876,
      "Ġlet": 877,
      "ener": 878,
      "ose": 879,
      "ank": 880,
      "arm": 881,
      "Ġadd": 882,
      "red": 883,
      "Ġrem": 884,
      "oy": 885,
      "Ġdidn": 886,
      "ize": 887,
      "They": 888,
      "Ġser": 889,
      "ollow": 890,
      "Ġdon": 891,
      "cess": 892,
      "irst": 893,
      "ics": 894,
      "hes": 895,
      "Ġem": 896,
      "led": 897,
      "Ġdad": 898,
      "Ġspecial": 899,
      "Ġoutside": 900,
      "Ġcall": 901,
      "Ġwhile": 902,
      "Ġtree": 903,
      "Ġtook": 904,
      "ible": 905,
      "ular": 906,
      "Ġball": 907,
      "Ġho": 908,
      "ered": 909,
      "Ġcons": 910,
      "Ġrel": 911,
      "Ġend": 912,
      "Ġbecause": 913,
      "we": 914,
      "orry": 915,
      "Ġfollow": 916,
      "Ġrec": 917,
      "Ġmommy": 918,
      "ss": 919,
      "fore": 920,
      "ĠWe": 921,
      "erm": 922,
      "ty": 923,
      "Ġwhere": 924,
      "put": 925,
      "ged": 926,
      "Ġlook": 927,
      "Ġbetter": 928,
      "ĠSam": 929,
      "Ġnum": 930,
      "lease": 931,
      "Ġtoys": 932,
      "ased": 933,
      "Ġthese": 934,
      "ating": 935,
      "âĢ": 936,
      "```": 937,
      "Th": 938,
      "Ġinter": 939,
      "ning": 940,
      "Ġbeen": 941,
      "Ġeven": 942,
      "Ġcode": 943,
      "----": 944,
      "Ġsur": 945,
      "angu": 946,
      "Ġcr": 947,
      "Ġmodel": 948,
      "Ġval": 949,
      "Ġworld": 950,
      "Ġred": 951,
      "olog": 952,
      "Ġfl": 953,
      "ied": 954,
      "Ġboth": 955,
      "Ġthrough": 956,
      "Ġfi": 957,
      "velop": 958,
      "ves": 959,
      "self": 960,
      "Ġcle": 961,
      "Ġsun": 962,
      "But": 963,
      "Ġpos": 964,
      "Ġknew": 965,
      "Ġob": 966,
      "Ġinst": 967,
      "Ġunderst": 968,
      "Ġind": 969,
      "Ġide": 970,
      "ents": 971,
      "Ġreal": 972,
      "ĠMax": 973,
      "ever": 974,
      "Ġsorry": 975,
      "lect": 976,
      "ond": 977,
      "Ġlaug": 978,
      "vers": 979,
      "Ġlangu": 980,
      "Ġpers": 981,
      "ized": 982,
      "ĠSt": 983,
      "Ġhum": 984,
      "Ġwa": 985,
      "Ġnever": 986,
      "ual": 987,
      "Ġhard": 988,
      "Ġhigh": 989,
      "Ġown": 990,
      "ĠIf": 991,
      "til": 992,
      "Ġcreat": 993,
      "denly": 994,
      "Ġbeing": 995,
      "Ġexample": 996,
      "ath": 997,
      "ĠCan": 998,
      "ower": 999,
      "Ġgener": 1000,
      "ments": 1001,
      "Ġcareful": 1002,
      "Ġact": 1003,
      "Yes": 1004,
      "Ġstill": 1005,
      "Ġfirst": 1006,
      "Ġfr": 1007,
      "Ġanim": 1008,
      "ump": 1009,
      "Ġtyp": 1010,
      "ting": 1011,
      "ĊĊ": 1012,
      "It": 1013,
      "In": 1014,
      "Ġdoes": 1015,
      "Ġhouse": 1016,
      "Ġroom": 1017,
      "ates": 1018,
      "Ġfin": 1019,
      "Ġrequ": 1020,
      "Ġinside": 1021,
      "akes": 1022,
      "Ġgame": 1023,
      "ility": 1024,
      "Ġmost": 1025,
      "ool": 1026,
      "Ġuntil": 1027,
      "lic": 1028,
      "Ġread": 1029,
      "Ġwr": 1030,
      "anc": 1031,
      "Ġeff": 1032,
      "Ġfam": 1033,
      "Ġvar": 1034,
      "ĠSara": 1035,
      "Ġunderstand": 1036,
      "air": 1037,
      "ĠK": 1038,
      "Ġinv": 1039,
      "Ġdet": 1040,
      "Ġsaf": 1041,
      "rib": 1042,
      "Ġsay": 1043,
      "ĠJo": 1044,
      "Ġour": 1045,
      "Ġonly": 1046,
      "ĠAnd": 1047,
      "aut": 1048,
      "Ġdevelop": 1049,
      "Ġrep": 1050,
      "Ġheard": 1051,
      "pr": 1052,
      "ows": 1053,
      "Ġbefore": 1054,
      "Ġtold": 1055,
      "Ġgive": 1056,
      "Ġkind": 1057,
      "Ġtried": 1058,
      "Ġresp": 1059,
      "Ġkeep": 1060,
      "ities": 1061,
      "iss": 1062,
      "Ġfunction": 1063,
      "Ġsl": 1064,
      "Ġcouldn": 1065,
      "ĠAnna": 1066,
      "Ġgreat": 1067,
      "tain": 1068,
      "gram": 1069,
      "Ġform": 1070,
      "Ġcreate": 1071,
      "Ġ{": 1072,
      "gan": 1073,
      "Ġgave": 1074,
      "Ġbox": 1075,
      "ages": 1076,
      "Ġyear": 1077,
      "its": 1078,
      "ife": 1079,
      "Ġexper": 1080,
      "Ġpret": 1081,
      "Ġplayed": 1082,
      "Ġtrain": 1083,
      "up": 1084,
      "Ġ|": 1085,
      "Ġproud": 1086,
      "Ġplan": 1087,
      "echn": 1088,
      "iet": 1089,
      "read": 1090,
      "Ġprocess": 1091,
      "ĠHere": 1092,
      "Ġdr": 1093,
      "uddenly": 1094,
      "ĠSo": 1095,
      "ience": 1096,
      "ween": 1097,
      "ĠAI": 1098,
      "Ġatt": 1099,
      "Ġcalled": 1100,
      "wor": 1101,
      "Ġbetween": 1102,
      "epend": 1103,
      "Ġflow": 1104,
      "Ġcome": 1105,
      "ĠV": 1106,
      "by": 1107,
      "Ġprogram": 1108,
      "con": 1109,
      "ĠEvery": 1110,
      "Mom": 1111,
      "ren": 1112,
      "Ġlove": 1113,
      "Ġright": 1114,
      "ars": 1115,
      "Ġbel": 1116,
      "Ġlanguage": 1117,
      "Ġperson": 1118,
      "ull": 1119,
      "'re": 1120,
      "ript": 1121,
      "Ġprovide": 1122,
      "Ġbuild": 1123,
      "()": 1124,
      "thing": 1125,
      "Ġquest": 1126,
      "Ġkey": 1127,
      "Ġnow": 1128,
      "Ġinform": 1129,
      "Ġtechn": 1130,
      "abb": 1131,
      "Ġ'": 1132,
      "ĠAs": 1133,
      "Ġhugged": 1134,
      "atter": 1135,
      "Ġwell": 1136,
      "Ġcat": 1137,
      "Ġreg": 1138,
      "Ġhere": 1139,
      "Ġsec": 1140,
      "Ġcomple": 1141,
      "br": 1142,
      "Ġlight": 1143,
      "Ġeat": 1144,
      "ward": 1145,
      "ĠJack": 1146,
      "Ġsure": 1147,
      "Ġnice": 1148,
      "ices": 1149,
      "Ġmean": 1150,
      "dy": 1151,
      "ms": 1152,
      "arch": 1153,
      "Ġspecific": 1154,
      "Ġac": 1155,
      "Ġcur": 1156,
      "enc": 1157,
      "az": 1158,
      "Ġlar": 1159,
      "Ġsn": 1160,
      "gry": 1161,
      "ĠWhen": 1162,
      "wer": 1163,
      "Ġlearned": 1164,
      "Ġsign": 1165,
      "Ġclos": 1166,
      "Ġfood": 1167,
      "Ġsoft": 1168,
      "Ġprom": 1169,
      "Ġafter": 1170,
      "Ġsupp": 1171,
      "Ġname": 1172,
      "be": 1173,
      "ian": 1174,
      "Ġbear": 1175,
      "Ġbeaut": 1176,
      "str": 1177,
      "Ġstay": 1178,
      "urt": 1179,
      "Åĵ": 1180,
      "ef": 1181,
      "Ġcomput": 1182,
      "Ġuser": 1183,
      "ider": 1184,
      "Ġbeh": 1185,
      "ential": 1186,
      "Ġret": 1187,
      "yth": 1188,
      "Ġidea": 1189,
      "Ġturn": 1190,
      "ished": 1191,
      "cept": 1192,
      "ather": 1193,
      "ired": 1194,
      "rop": 1195,
      "gg": 1196,
      "Ġexplore": 1197,
      "Ġpower": 1198,
      "ner": 1199,
      "Ġsky": 1200,
      "Ġgu": 1201,
      "Ġph": 1202,
      "Ġfle": 1203,
      "Ġfore": 1204,
      "Ġanimals": 1205,
      "He": 1206,
      "oll": 1207,
      "Ġel": 1208,
      "Ġinformation": 1209,
      "ues": 1210,
      "Ġgl": 1211,
      "oice": 1212,
      "Ġfamily": 1213,
      "ython": 1214,
      "Ġprod": 1215,
      "Ġsol": 1216,
      "..": 1217,
      "Ġtrans": 1218,
      "eld": 1219,
      "Ġtop": 1220,
      "ĠHer": 1221,
      "Ġdist": 1222,
      "Ġcor": 1223,
      "Ġgard": 1224,
      "ched": 1225,
      "Ġrepl": 1226,
      "te": 1227,
      "Ġpoint": 1228,
      "ĠSp": 1229,
      "Ġdef": 1230,
      "Ġsafe": 1231,
      "Ġshare": 1232,
      "ĠThere": 1233,
      "alth": 1234,
      "Ġpic": 1235,
      "Ġchar": 1236,
      "ness": 1237,
      "Ġmight": 1238,
      "iful": 1239,
      "Ġmon": 1240,
      "Ġwind": 1241,
      "\",": 1242,
      "ened": 1243,
      "Ġpot": 1244,
      "Ġnumber": 1245,
      "Ġjump": 1246,
      "ries": 1247,
      "iny": 1248,
      "Ġmaking": 1249,
      "Ġfast": 1250,
      "Ġgarden": 1251,
      "ĠMia": 1252,
      "Ġnod": 1253,
      "Ġnext": 1254,
      "ware": 1255,
      "Ġbad": 1256,
      "Ġbeautiful": 1257,
      "Ġ`": 1258,
      "ream": 1259,
      "Tom": 1260,
      "ised": 1261,
      "iting": 1262,
      "ĠÃ¢": 1263,
      "ten": 1264,
      "Ġgoing": 1265,
      "ĠThen": 1266,
      "Ġref": 1267,
      "ib": 1268,
      "lock": 1269,
      "iqu": 1270,
      "Ġmin": 1271,
      "So": 1272,
      "Ġav": 1273,
      "Ġloud": 1274,
      "Ġclean": 1275,
      "Ġpop": 1276,
      "imes": 1277,
      "TM": 1278,
      "Ġey": 1279,
      "ph": 1280,
      "uring": 1281,
      "gy": 1282,
      "Ġdel": 1283,
      "Ġ*": 1284,
      "day": 1285,
      "Ġmus": 1286,
      "Ġfile": 1287,
      "Ġtell": 1288,
      "Ġthanked": 1289,
      "Ġass": 1290,
      "Ġposs": 1291,
      "ane": 1292,
      "Ġpol": 1293,
      "Ġincluding": 1294,
      "ma": 1295,
      "Ġplace": 1296,
      "ĠHis": 1297,
      "Ġsound": 1298,
      "Ġlaughed": 1299,
      "ĠCh": 1300,
      "Ġinf": 1301,
      "iew": 1302,
      "Ġexp": 1303,
      "Ġ<": 1304,
      "Ġhuman": 1305,
      "Ġ0": 1306,
      "ature": 1307,
      "//": 1308,
      "Ġrock": 1309,
      "Ġstep": 1310,
      "Ġlooking": 1311,
      "Ġstrong": 1312,
      "ĠFrom": 1313,
      "joy": 1314,
      "kay": 1315,
      "Ġhead": 1316,
      "Ġfact": 1317,
      "Ġadv": 1318,
      "ove": 1319,
      "ural": 1320,
      "Ġmess": 1321,
      "Ġans": 1322,
      "Ġquick": 1323,
      "Ġlife": 1324,
      "ĠHowever": 1325,
      "ash": 1326,
      "What": 1327,
      "Ġdepend": 1328,
      "Ġfew": 1329,
      "Ġcry": 1330,
      "ines": 1331,
      "Ġground": 1332,
      "Ġless": 1333,
      "ins": 1334,
      "ually": 1335,
      "ative": 1336,
      "Ġtre": 1337,
      "Ġopt": 1338,
      "Ġsub": 1339,
      "ames": 1340,
      "Ġeas": 1341,
      "Ġclim": 1342,
      "Ġdesign": 1343,
      "Ġcount": 1344,
      "Ġlots": 1345,
      "Ġstore": 1346,
      "Ġmag": 1347,
      "Ġsqu": 1348,
      "ody": 1349,
      "Ġlived": 1350,
      "ĠFor": 1351,
      "Ġtext": 1352,
      "Let": 1353,
      "When": 1354,
      "Ġ+": 1355,
      "Ġ4": 1356,
      "Ġvis": 1357,
      "Ġhop": 1358,
      "Ġhurt": 1359,
      "Ġperform": 1360,
      "Ġnoise": 1361,
      "Ġmed": 1362,
      "Ġweb": 1363,
      "Ġcontin": 1364,
      "Ġ5": 1365,
      "Ġadvent": 1366,
      "Ġsoon": 1367,
      "Ġword": 1368,
      "ng": 1369,
      "omm": 1370,
      "acter": 1371,
      "Ġable": 1372,
      "ify": 1373,
      "Ġz": 1374,
      "Ġdisc": 1375,
      "Ġtal": 1376,
      "iles": 1377,
      "app": 1378,
      "ĠDo": 1379,
      "Ġclass": 1380,
      "eng": 1381,
      "ps": 1382,
      "Ġmove": 1383,
      "Ġconf": 1384,
      "Ġsurpr": 1385,
      "ote": 1386,
      "ution": 1387,
      "Ġmor": 1388,
      "uce": 1389,
      "ethod": 1390,
      "Ġmain": 1391,
      "Ġ[": 1392,
      "ality": 1393,
      "Ġobject": 1394,
      "Ġfly": 1395,
      "Ġair": 1396,
      "ret": 1397,
      "Ġyears": 1398,
      ");": 1399,
      "Ġgre": 1400,
      "Ġbro": 1401,
      "Ġloc": 1402,
      "Ġreturn": 1403,
      "ets": 1404,
      "rove": 1405,
      "Ġenjoy": 1406,
      "leep": 1407,
      "ident": 1408,
      "Ġfo": 1409,
      "Ġbus": 1410,
      "Ġsame": 1411,
      "Ġthree": 1412,
      "ĠTo": 1413,
      "ucy": 1414,
      "Ġwalked": 1415,
      "Ġent": 1416,
      "Ġproble": 1417,
      "der": 1418,
      "Ġpain": 1419,
      "Ġwhy": 1420,
      "ead": 1421,
      "Ġchild": 1422,
      "Ġlead": 1423,
      "Ġangry": 1424,
      "Ġthink": 1425,
      "Ġresult": 1426,
      "ee": 1427,
      "Ġext": 1428,
      "ier": 1429,
      "Ġfish": 1430,
      "raw": 1431,
      "'ll": 1432,
      "That": 1433,
      "ho": 1434,
      "ides": 1435,
      "Ġcal": 1436,
      "port": 1437,
      "Ġfeeling": 1438,
      "line": 1439,
      "Ġdoor": 1440,
      "Ġblock": 1441,
      "Ġart": 1442,
      "Ġflew": 1443,
      "No": 1444,
      "Ġstud": 1445,
      "Ġbelie": 1446,
      "Ġele": 1447,
      "rent": 1448,
      "Ġsto": 1449,
      "work": 1450,
      "âĸ": 1451,
      "Ġmethod": 1452,
      "),": 1453,
      "Ġpretty": 1454,
      "Ġnet": 1455,
      "Ġbre": 1456,
      "Ġpur": 1457,
      "ming": 1458,
      "illy": 1459,
      "ex": 1460,
      "Ġeng": 1461,
      "ology": 1462,
      "bo": 1463,
      "ven": 1464,
      "Ġanother": 1465,
      "Ġlarge": 1466,
      "Ġplease": 1467,
      "ask": 1468,
      "Ġbrave": 1469,
      "Ġhealth": 1470,
      "ded": 1471,
      "Ġspe": 1472,
      "Ġquickly": 1473,
      "ix": 1474,
      "Ġremem": 1475,
      "Ġdoll": 1476,
      "Ġkept": 1477,
      "Ġnear": 1478,
      "Ġsing": 1479,
      "ĠJohn": 1480,
      "ern": 1481,
      "\".": 1482,
      "ger": 1483,
      "gor": 1484,
      "Ġtool": 1485,
      "Ġeyes": 1486,
      "Ġfield": 1487,
      "Ġmet": 1488,
      "Ġdri": 1489,
      "Ġlik": 1490,
      "sc": 1491,
      "ined": 1492,
      "Ġcharacter": 1493,
      "ĠAd": 1494,
      "iron": 1495,
      "erest": 1496,
      "Ġexplain": 1497,
      "aug": 1498,
      "ross": 1499,
      "Ġblue": 1500,
      "Ġwithout": 1501,
      "We": 1502,
      ").": 1503,
      "Ġlearning": 1504,
      "iced": 1505,
      "ource": 1506,
      "Ġsoc": 1507,
      "to": 1508,
      "aster": 1509,
      "Ġgiv": 1510,
      "Ġrest": 1511,
      "Ġinclude": 1512,
      "Ġ20": 1513,
      "Ġbased": 1514,
      "Ġpossible": 1515,
      "ically": 1516,
      "Ġopened": 1517,
      "ĠThat": 1518,
      "ute": 1519,
      "Ġwalking": 1520,
      "nce": 1521,
      "Ġoften": 1522,
      "Ġever": 1523,
      "ummy": 1524,
      "Ġaut": 1525,
      "Ġbi": 1526,
      "any": 1527,
      "Ġshiny": 1528,
      "Ġcommun": 1529,
      "This": 1530,
      "Ġbook": 1531,
      "Ġmat": 1532,
      "Ġothers": 1533,
      "Ġve": 1534,
      "Ġnodded": 1535,
      "hip": 1536,
      "ĠLet": 1537,
      "Ġelse": 1538,
      "ples": 1539,
      "Tim": 1540,
      "Ġclimb": 1541,
      "Ġsupport": 1542,
      "nect": 1543,
      "Ġbit": 1544,
      "Ġpar": 1545,
      "com": 1546,
      "ape": 1547,
      "Ġvalue": 1548,
      "mat": 1549,
      "Ġinterest": 1550,
      "Ġmem": 1551,
      "Ġapplic": 1552,
      "Ġpass": 1553,
      "io": 1554,
      "Ġlisten": 1555,
      "Ġproject": 1556,
      "Ġequ": 1557,
      "iec": 1558,
      "Ġinput": 1559,
      "Ġhands": 1560,
      "Ġface": 1561,
      "Ġhaving": 1562,
      "ont": 1563,
      "Ġ}": 1564,
      "ources": 1565,
      "Ġvoice": 1566,
      "Ġwatch": 1567,
      "gorith": 1568,
      "Ġanything": 1569,
      "Ġsmile": 1570,
      "ift": 1571,
      "ĠUn": 1572,
      "mer": 1573,
      "ism": 1574,
      "Ġjo": 1575,
      "Ġcomplex": 1576,
      "Ġforest": 1577,
      "ization": 1578,
      "Ġmust": 1579,
      "Ġmult": 1580,
      "ĠBob": 1581,
      "Ġpict": 1582,
      "Ġfree": 1583,
      "Ġeffect": 1584,
      "ĠDad": 1585,
      "Ġnight": 1586,
      "resent": 1587,
      "Ġ#": 1588,
      "Ġdire": 1589,
      "Ġener": 1590,
      "Ġpicked": 1591,
      "Ġproper": 1592,
      "aper": 1593,
      "Ġwrite": 1594,
      "Ġanswer": 1595,
      "ric": 1596,
      "uri": 1597,
      "Ġcolor": 1598,
      "ĠLucy": 1599,
      "Ġconc": 1600,
      "Ġprot": 1601,
      "ale": 1602,
      "ci": 1603,
      "Ġwarm": 1604,
      "Ġins": 1605,
      "Ġbecame": 1606,
      "Ġcontro": 1607,
      "ince": 1608,
      "--------": 1609,
      "ello": 1610,
      "ional": 1611,
      "Ġmach": 1612,
      "Ġrain": 1613,
      "Ġflo": 1614,
      "Ġeveryone": 1615,
      "Ġoper": 1616,
      "):": 1617,
      "Ġgrow": 1618,
      "Ġ$": 1619,
      "Ġenv": 1620,
      "Thank": 1621,
      "Ġwo": 1622,
      "lu": 1623,
      "Ġdone": 1624,
      "Ġalgorith": 1625,
      "avor": 1626,
      "itc": 1627,
      "ertain": 1628,
      "Ġpopular": 1629,
      "Ġswe": 1630,
      "Ġmark": 1631,
      "oney": 1632,
      "An": 1633,
      "bers": 1634,
      "Ġincre": 1635,
      "Ġpiec": 1636,
      "Ġreally": 1637,
      "Ġknown": 1638,
      "ĠAl": 1639,
      "Ġtype": 1640,
      "ext": 1641,
      "As": 1642,
      "hing": 1643,
      "ott": 1644,
      "oup": 1645,
      "Ġreplied": 1646,
      "ling": 1647,
      "Ġterm": 1648,
      "oon": 1649,
      "Ġenergy": 1650,
      "Ġdeep": 1651,
      "ids": 1652,
      "St": 1653,
      "Ġtruck": 1654,
      "aces": 1655,
      "Ġnoticed": 1656,
      "Ġrunning": 1657,
      "Ġinvol": 1658,
      "tern": 1659,
      "Ġ6": 1660,
      "Ġconsider": 1661,
      "arent": 1662,
      "Ġchang": 1663,
      "She": 1664,
      "Ġwalk": 1665,
      "Ġflowers": 1666,
      "Suddenly": 1667,
      "Ġfollowing": 1668,
      "illed": 1669,
      "ately": 1670,
      "ement": 1671,
      "Ġcurrent": 1672,
      "Ġask": 1673,
      "cul": 1674,
      "ability": 1675,
      "Ġenough": 1676,
      "ract": 1677,
      "Ġsomeone": 1678,
      "Ġstop": 1679,
      "Ġwat": 1680,
      "cle": 1681,
      "Ġsleep": 1682,
      "arth": 1683,
      "ĠSure": 1684,
      "Ġself": 1685,
      "Ġdoing": 1686,
      "Ġpotential": 1687,
      "Ġfur": 1688,
      "Ġfire": 1689,
      "Ġshout": 1690,
      "ray": 1691,
      "ases": 1692,
      "ached": 1693,
      "Ben": 1694,
      "ivid": 1695,
      "asure": 1696,
      "ster": 1697,
      "aly": 1698,
      "Ġnec": 1699,
      "**": 1700,
      "amp": 1701,
      "Ġstopped": 1702,
      "Ġokay": 1703,
      "aring": 1704,
      "ton": 1705,
      "err": 1706,
      "::": 1707,
      "ĠSuddenly": 1708,
      "Ġallow": 1709,
      "Ġsit": 1710,
      "Ġhold": 1711,
      "gle": 1712,
      "Ġcook": 1713,
      "aves": 1714,
      "Ġpract": 1715,
      "Ġtable": 1716,
      "Ġens": 1717,
      "aybe": 1718,
      "Ġleft": 1719,
      "Ġyell": 1720,
      "ĠWh": 1721,
      "Ġed": 1722,
      "Ġaccess": 1723,
      "Ġthing": 1724,
      "Ġpartic": 1725,
      "irt": 1726,
      "Ġrabb": 1727,
      "Ġste": 1728,
      "Ġcour": 1729,
      "ken": 1730,
      "Ġ19": 1731,
      "Ġcuri": 1732,
      "Ġslide": 1733,
      "Ġamaz": 1734,
      "Ġdark": 1735,
      "Ġenviron": 1736,
      "Ġquestions": 1737,
      "ocus": 1738,
      "Ġimprove": 1739,
      "aw": 1740,
      "Ġbright": 1741,
      "aph": 1742,
      "row": 1743,
      "Ġhist": 1744,
      "ĠMommy": 1745,
      "iety": 1746,
      "Ġleg": 1747,
      "Ġi": 1748,
      "ĠEm": 1749,
      "Ġtem": 1750,
      "Ġshowed": 1751,
      "Ġsong": 1752,
      "key": 1753,
      "Ġboo": 1754,
      "Ġbutter": 1755,
      "ech": 1756,
      "Ġneeded": 1757,
      "Ġben": 1758,
      "Ġ10": 1759,
      "ique": 1760,
      "Ġcloser": 1761,
      "Ġseen": 1762,
      "Ġstand": 1763,
      "Ġsystems": 1764,
      "els": 1765,
      "Ġfix": 1766,
      "Ġsoftware": 1767,
      "hys": 1768,
      "ĠIs": 1769,
      "pect": 1770,
      "Can": 1771,
      "ĠSome": 1772,
      "ories": 1773,
      "etimes": 1774,
      "vice": 1775,
      "Ġmakes": 1776,
      "more": 1777,
      "ĠPython": 1778,
      "Ġappro": 1779,
      "apt": 1780,
      "Ġfull": 1781,
      "Ġcond": 1782,
      "iver": 1783,
      "ational": 1784,
      "Ġtest": 1785,
      "Ġdeterm": 1786,
      "vices": 1787,
      "Ġlad": 1788,
      "Ġsever": 1789,
      "Ġrequire": 1790,
      "Ġslow": 1791,
      "iness": 1792,
      "Ġorgan": 1793,
      "Ġcurious": 1794,
      "Ġtraining": 1795,
      "bye": 1796,
      "less": 1797,
      "Ġcomputer": 1798,
      "Ġcake": 1799,
      "Ġwatched": 1800,
      "Ġwood": 1801,
      "Ġrabbit": 1802,
      "Ġcommon": 1803,
      "anger": 1804,
      "Ġcap": 1805,
      "Ġmusic": 1806,
      "Ġsugg": 1807,
      "Ġsuggest": 1808,
      "Ġforg": 1809,
      "itive": 1810,
      "ĠGr": 1811,
      "ots": 1812,
      "Ġconnect": 1813,
      "Ġjob": 1814,
      "not": 1815,
      "Ġwait": 1816,
      "Ġsteps": 1817,
      "Ġsho": 1818,
      "Ġfavor": 1819,
      "cript": 1820,
      "icult": 1821,
      "Ġpaper": 1822,
      "rel": 1823,
      "orn": 1824,
      "Ġdirect": 1825,
      "Ġexperience": 1826,
      "ants": 1827,
      "Ġadventure": 1828,
      "âĢĻ": 1829,
      "wards": 1830,
      "Ġtast": 1831,
      "Ġindivid": 1832,
      "Ġsum": 1833,
      "Ġdevelopment": 1834,
      "Ġfall": 1835,
      "Ġthose": 1836,
      "cket": 1837,
      "inally": 1838,
      "Ġparent": 1839,
      "Ġline": 1840,
      "Ġseveral": 1841,
      "Ġdress": 1842,
      "Ġcent": 1843,
      "Ġhun": 1844,
      "Ġdraw": 1845,
      "ued": 1846,
      "oring": 1847,
      "ĠOpen": 1848,
      "Ġcontain": 1849,
      "atures": 1850,
      "itional": 1851,
      "Ġbirds": 1852,
      "Ġcool": 1853,
      "ats": 1854,
      "ists": 1855,
      "Ġwords": 1856,
      "come": 1857,
      "Ġpri": 1858,
      "Ġ.": 1859,
      "Ġsweet": 1860,
      "ert": 1861,
      "iding": 1862,
      "ense": 1863,
      "ĠRe": 1864,
      "Ġbuy": 1865,
      "Ġglad": 1866,
      "Ġbegan": 1867,
      "ables": 1868,
      "Ġbehind": 1869,
      "Look": 1870,
      "Ġhelped": 1871,
      "where": 1872,
      "ĠSpot": 1873,
      "man": 1874,
      "Ġlay": 1875,
      "Ġside": 1876,
      "ency": 1877,
      "ĠAdd": 1878,
      "ator": 1879,
      "Ġes": 1880,
      "unny": 1881,
      "Ġquestion": 1882,
      "olly": 1883,
      "Ġstruct": 1884,
      "ommend": 1885,
      "uction": 1886,
      "Hello": 1887,
      "Ġmachine": 1888,
      "Ġenvironment": 1889,
      "Ġgoodbye": 1890,
      "Ġgreen": 1891,
      "Ġmulti": 1892,
      "itchen": 1893,
      "Ġdifficult": 1894,
      "Ġimpact": 1895,
      "20": 1896,
      "Ġlim": 1897,
      "Ġhappened": 1898,
      "Ġchall": 1899,
      "Ġsat": 1900,
      "Ġkitchen": 1901,
      "Ġchange": 1902,
      "Ġcommand": 1903,
      "zy": 1904,
      "Ġland": 1905,
      "Ġcatch": 1906,
      "ila": 1907,
      "Ġlibr": 1908,
      "ĠEx": 1909,
      "Ġelect": 1910,
      "(\"": 1911,
      "Ġrange": 1912,
      "Ġthin": 1913,
      "Ġpus": 1914,
      "andma": 1915,
      "Ġlevel": 1916,
      "Ġlooks": 1917,
      "Jo": 1918,
      "Ġfavorite": 1919,
      "ĠPlease": 1920,
      "Ġsand": 1921,
      "Her": 1922,
      "Ġfocus": 1923,
      "ences": 1924,
      "Ġiss": 1925,
      "Ġprof": 1926,
      "Ġstate": 1927,
      "oun": 1928,
      "gin": 1929,
      "aterial": 1930,
      "Ġrecommend": 1931,
      "ost": 1932,
      "Ġanymore": 1933,
      "ais": 1934,
      "ĠSarah": 1935,
      "Ġprint": 1936,
      "Ġtrying": 1937,
      "Ġfell": 1938,
      "Ġphys": 1939,
      "Ġduring": 1940,
      "Ġavail": 1941,
      "erc": 1942,
      "aught": 1943,
      "Ġproblem": 1944,
      "conom": 1945,
      "plement": 1946,
      "10": 1947,
      "fort": 1948,
      "ĠSue": 1949,
      "Ġgrabb": 1950,
      "oose": 1951,
      "Ġorder": 1952,
      "Ġclose": 1953,
      "Ġcontent": 1954,
      "Ġx": 1955,
      "Ġready": 1956,
      "Ġsignific": 1957,
      "Ġpu": 1958,
      "Ġfarm": 1959,
      "Ġrealized": 1960,
      "Ġbrother": 1961,
      "ems": 1962,
      "Ġprotect": 1963,
      "Ġwhe": 1964,
      "Ġprin": 1965,
      "Ġreached": 1966,
      "ron": 1967,
      "Ġcoming": 1968,
      "rog": 1969,
      "Ġtreat": 1970,
      "Ġbow": 1971,
      "ively": 1972,
      "After": 1973,
      "Ġbreak": 1974,
      "Ġenc": 1975,
      "Ġvari": 1976,
      "li": 1977,
      "Ġcontrol": 1978,
      "Ġbody": 1979,
      "inal": 1980,
      "Ġhot": 1981,
      "und": 1982,
      "ills": 1983,
      "Ġneeds": 1984,
      "Ġcult": 1985,
      "Ġmind": 1986,
      "reed": 1987,
      "Ġstick": 1988,
      "ĠJoe": 1989,
      "Ġmeans": 1990,
      "Ġgetting": 1991,
      "Ġhig": 1992,
      "Ġcars": 1993,
      "Ġsearch": 1994,
      "Ġgrabbed": 1995,
      "Ġpick": 1996,
      "Ġdelic": 1997,
      "Ġ8": 1998,
      "sh": 1999,
      "Ġcheck": 2000,
      "itions": 2001,
      "ior": 2002,
      "ĠPro": 2003,
      "ention": 2004,
      "dle": 2005,
      "icy": 2006,
      "oid": 2007,
      "Ġbooks": 2008,
      "room": 2009,
      "ustom": 2010,
      "rect": 2011,
      "ser": 2012,
      "ccess": 2013,
      "Ġevent": 2014,
      "ata": 2015,
      "ument": 2016,
      "ination": 2017,
      "ĠThese": 2018,
      "Ġcast": 2019,
      "Ġinstall": 2020,
      "Ġwindow": 2021,
      "Ġdi": 2022,
      "Ġworry": 2023,
      "=\"": 2024,
      "onse": 2025,
      "let": 2026,
      "Ġdin": 2027,
      "Ġfar": 2028,
      "yle": 2029,
      "Ġcost": 2030,
      "Ġhimself": 2031,
      "Ġensure": 2032,
      "Ġfair": 2033,
      "Ġarg": 2034,
      "Ġcold": 2035,
      "anced": 2036,
      "Ġprogramming": 2037,
      "Ġwrong": 2038,
      "Ġhair": 2039,
      "Ġtri": 2040,
      "Ġwonder": 2041,
      "Ġtoday": 2042,
      "Ġproduct": 2043,
      "acy": 2044,
      "Ġeffic": 2045,
      "Ġfactors": 2046,
      "Ġchildren": 2047,
      "ĠAfter": 2048,
      "Ġnetwork": 2049,
      "ital": 2050,
      "ĠJane": 2051,
      "Ġscre": 2052,
      "Ġwhite": 2053,
      "Ġboat": 2054,
      "Ġsees": 2055,
      "Ġshouted": 2056,
      "Ġvide": 2057,
      "Ġblocks": 2058,
      "Ġgrass": 2059,
      "Ġwebs": 2060,
      "Ġcomb": 2061,
      "Ġtouch": 2062,
      "Ġrese": 2063,
      "Ġfil": 2064,
      "Ġjumped": 2065,
      "ilar": 2066,
      "Ġmiss": 2067,
      "Ġamount": 2068,
      "Ġparents": 2069,
      "Ġtakes": 2070,
      "ctor": 2071,
      "Ġbar": 2072,
      "Ġscript": 2073,
      "utes": 2074,
      "Ġtrees": 2075,
      "Ġpat": 2076,
      "Ġways": 2077,
      "Ġspace": 2078,
      "play": 2079,
      "Ġmouse": 2080,
      "fect": 2081,
      "val": 2082,
      "Ġsch": 2083,
      "Ġcolors": 2084,
      "000": 2085,
      "Ġmum": 2086,
      "Ġhope": 2087,
      "To": 2088,
      "chie": 2089,
      "Ġunderstanding": 2090,
      "Ġsize": 2091,
      "Ġfeatures": 2092,
      "Ġlost": 2093,
      "Ġmoney": 2094,
      "ney": 2095,
      "aby": 2096,
      "Ġimage": 2097,
      "Ġconcept": 2098,
      "Ġmanag": 2099,
      "ĠAr": 2100,
      "Ġresources": 2101,
      "Ġpast": 2102,
      "Ġbas": 2103,
      "Ġbecome": 2104,
      "Ġvers": 2105,
      "ava": 2106,
      "Ġbunny": 2107,
      "board": 2108,
      "',": 2109,
      "Ġreach": 2110,
      "Ġice": 2111,
      "Ġduck": 2112,
      "name": 2113,
      "Ġmaterial": 2114,
      "Ġoutput": 2115,
      "Ġgames": 2116,
      "asks": 2117,
      "Ġfunny": 2118,
      "Ġsignificant": 2119,
      "Ġunique": 2120,
      "Ġmar": 2121,
      "rod": 2122,
      "Ġpersonal": 2123,
      "Ġworks": 2124,
      "Ġfloor": 2125,
      "uture": 2126,
      "Ġengine": 2127,
      "Ġlady": 2128,
      "Ġsocial": 2129,
      "Ġavailable": 2130,
      "set": 2131,
      "attern": 2132,
      "ellig": 2133,
      "Ġtrad": 2134,
      "ilities": 2135,
      "Ġaff": 2136,
      "ĠNow": 2137,
      "Ġyourself": 2138,
      "Ġ7": 2139,
      "__": 2140,
      "Ġcir": 2141,
      "Ġest": 2142,
      "agon": 2143,
      "Ġworked": 2144,
      "://": 2145,
      "Ġkids": 2146,
      "Ġtools": 2147,
      "Ġdream": 2148,
      "ication": 2149,
      "Ġeconom": 2150,
      "ises": 2151,
      "Ġhear": 2152,
      "Ġpretend": 2153,
      "Ġexamples": 2154,
      "Ġfight": 2155,
      "Ġvarious": 2156,
      "Ġyummy": 2157,
      "ĠBr": 2158,
      "Ġspeed": 2159,
      "Ġinstead": 2160,
      "Don": 2161,
      "Ġcase": 2162,
      "sy": 2163,
      "net": 2164,
      "Mommy": 2165,
      "Ġcarefully": 2166,
      "Ġbehav": 2167,
      "Ġcard": 2168,
      "ery": 2169,
      "Ġbuilding": 2170,
      "ublic": 2171,
      "Ġyellow": 2172,
      "Ġdem": 2173,
      "Ġbutterf": 2174,
      "Ġtechnology": 2175,
      "Ġnote": 2176,
      "Ġexist": 2177,
      "Ġimplement": 2178,
      "Ġsurprise": 2179,
      "oint": 2180,
      "Ġfollowed": 2181,
      "Ġdanger": 2182,
      "ĠYes": 2183,
      "Ġlesson": 2184,
      "Ġmarket": 2185,
      "ivity": 2186,
      "view": 2187,
      "ails": 2188,
      "Ġopp": 2189,
      "Ġarri": 2190,
      "Ġachie": 2191,
      "Ġpattern": 2192,
      "Ġhat": 2193,
      "Ġmodels": 2194,
      "Ġate": 2195,
      "Ġsuccess": 2196,
      "Ġbal": 2197,
      "pos": 2198,
      "tt": 2199,
      "usion": 2200,
      "Ġtall": 2201,
      "ision": 2202,
      "Ġperfect": 2203,
      "ering": 2204,
      "for": 2205,
      "Ġpack": 2206,
      "Ġblack": 2207,
      "hemat": 2208,
      "Ġfilled": 2209,
      "Ġdig": 2210,
      "Ġcustom": 2211,
      "Ġ/": 2212,
      "Ġpond": 2213,
      "Ġcalcul": 2214,
      "Ġacross": 2215,
      "Ġheld": 2216,
      "cl": 2217,
      "Ġris": 2218,
      "Ġflower": 2219,
      "Ġap": 2220,
      "Ġthank": 2221,
      "ĠThank": 2222,
      "Ġlaugh": 2223,
      "ule": 2224,
      "Ġcourse": 2225,
      "Ġcut": 2226,
      "Ġtired": 2227,
      "load": 2228,
      "ĠBe": 2229,
      "Ġteam": 2230,
      "Ġrespons": 2231,
      "Ġuses": 2232,
      "Ġgeneral": 2233,
      "aisy": 2234,
      "Ġswim": 2235,
      "Ġperformance": 2236,
      "ze": 2237,
      "ĠEveryone": 2238,
      "reate": 2239,
      "Ġtasks": 2240,
      "att": 2241,
      "ux": 2242,
      "Ġanaly": 2243,
      "Ġliving": 2244,
      "face": 2245,
      "eter": 2246,
      "avel": 2247,
      "Ġtowards": 2248,
      "Ġalgorithm": 2249,
      "Ġfuture": 2250,
      "TMs": 2251,
      "Ġroll": 2252,
      "pe": 2253,
      "uff": 2254,
      "Wow": 2255,
      "ters": 2256,
      "Ġhigher": 2257,
      "Ġmoment": 2258,
      "Ġswing": 2259,
      "Ġeverything": 2260,
      "Ġbag": 2261,
      "ives": 2262,
      "Ġtaking": 2263,
      "Ġheav": 2264,
      "Ġwon": 2265,
      "Ġstring": 2266,
      "Ġwaved": 2267,
      "Ġri": 2268,
      "Ġwin": 2269,
      "Ġcup": 2270,
      "raft": 2271,
      "bered": 2272,
      "Ġprevent": 2273,
      "Ġcannot": 2274,
      "andy": 2275,
      "Ġmother": 2276,
      "Ġdelicious": 2277,
      "Ġsometimes": 2278,
      "ason": 2279,
      "</": 2280,
      "Ġinvest": 2281,
      "Ġbelieve": 2282,
      "ume": 2283,
      "Anna": 2284,
      "unch": 2285,
      "ĠĠ": 2286,
      "Ġmix": 2287,
      "Ġheart": 2288,
      "Ġorig": 2289,
      "Ġfrog": 2290,
      "Ġcried": 2291,
      "Sara": 2292,
      "Ġcontinued": 2293,
      "acks": 2294,
      "ama": 2295,
      "Ġlow": 2296,
      "Ġfaster": 2297,
      "Ġhistory": 2298,
      "Ġsal": 2299,
      "Ġworking": 2300,
      "And": 2301,
      "Ġport": 2302,
      "Ġhole": 2303,
      "Ġcertain": 2304,
      "Ġserver": 2305,
      "Ġresponse": 2306,
      "ĠLe": 2307,
      "Ġeasy": 2308,
      "Ġhopped": 2309,
      "Ġnumbers": 2310,
      "ury": 2311,
      "ledge": 2312,
      "pro": 2313,
      "Ġsmo": 2314,
      "Ġsnow": 2315,
      "Ġsimilar": 2316,
      "ister": 2317,
      "Ġhappily": 2318,
      "nces": 2319,
      "Ġwall": 2320,
      "Ġgent": 2321,
      "atform": 2322,
      "Ġear": 2323,
      "Ġlog": 2324,
      "ĠCon": 2325,
      "Ġcompany": 2326,
      "urity": 2327,
      "co": 2328,
      "Ġleaves": 2329,
      "John": 2330,
      "ified": 2331,
      "ĠQ": 2332,
      "Ġlaw": 2333,
      "Timmy": 2334,
      "Ġremembered": 2335,
      "Ġpicture": 2336,
      "Ġmil": 2337,
      "ov": 2338,
      "uss": 2339,
      "Ġusers": 2340,
      "crib": 2341,
      "Ġsym": 2342,
      "Ġyoung": 2343,
      "Ġbroken": 2344,
      "Ġwished": 2345,
      "itical": 2346,
      "ppy": 2347,
      "lish": 2348,
      "ĠLila": 2349,
      "Ġview": 2350,
      "Ġsource": 2351,
      "ially": 2352,
      "âĶ": 2353,
      "atural": 2354,
      "Ġallows": 2355,
      "Ġchalleng": 2356,
      "Ġcause": 2357,
      "Ġcorrect": 2358,
      "Ġpath": 2359,
      "Ġchanges": 2360,
      "itting": 2361,
      "Ġpress": 2362,
      "Ġschool": 2363,
      "ts": 2364,
      "Ġsurprised": 2365,
      "Ġlikes": 2366,
      "Ġsecond": 2367,
      "Ġmatter": 2368,
      "Ġcell": 2369,
      "Ġident": 2370,
      "ĠTr": 2371,
      "Ġrequest": 2372,
      "Ġsent": 2373,
      "ĠMy": 2374,
      "ours": 2375,
      "Ġstudy": 2376,
      "Ġbott": 2377,
      "Ġcloud": 2378,
      "par": 2379,
      "Ġbutterfly": 2380,
      "Ġweight": 2381,
      "Ġsort": 2382,
      "ek": 2383,
      "From": 2384,
      "Ġmorning": 2385,
      "itionally": 2386,
      "Ġmultiple": 2387,
      "Ġsmart": 2388,
      "pping": 2389,
      "Ġlast": 2390,
      "Ġmot": 2391,
      "Ġyes": 2392,
      "][": 2393,
      "Ġnecess": 2394,
      "Ġfinished": 2395,
      "âĶĢ": 2396,
      "ances": 2397,
      "elcome": 2398,
      "ese": 2399,
      "Ġfinally": 2400,
      "Ġminutes": 2401,
      "Ġremember": 2402,
      "rew": 2403,
      "pec": 2404,
      "Ġalong": 2405,
      "Ġlonger": 2406,
      "old": 2407,
      "Ġintellig": 2408,
      "iverse": 2409,
      "vern": 2410,
      "Ġtight": 2411,
      "Ġmessage": 2412,
      "Ġskills": 2413,
      "Ġinflu": 2414,
      "Ġmathemat": 2415,
      "ring": 2416,
      "Ġscient": 2417,
      "Ġrad": 2418,
      "Ġbaby": 2419,
      "import": 2420,
      "ium": 2421,
      "Ġmoral": 2422,
      "ribut": 2423,
      "ĠUse": 2424,
      "Ġherself": 2425,
      "Ġconst": 2426,
      "ĠZ": 2427,
      "yn": 2428,
      "Ġgone": 2429,
      "med": 2430,
      "Ġwebsite": 2431,
      "ube": 2432,
      "Ġtalk": 2433,
      "Ġgiven": 2434,
      "Ġapplications": 2435,
      "ĠTommy": 2436,
      "Ġvalues": 2437,
      "ires": 2438,
      "Ġinteract": 2439,
      "Ġplatform": 2440,
      "Ġtypes": 2441,
      "Ġwants": 2442,
      "eddy": 2443,
      "Ġrele": 2444,
      "Ġclear": 2445,
      "Ġenjoyed": 2446,
      "##": 2447,
      "outh": 2448,
      "Ġmeaning": 2449,
      "Ġwide": 2450,
      "itten": 2451,
      "zz": 2452,
      "Ġbug": 2453,
      "ĠWhile": 2454,
      "Ġturned": 2455,
      "Ġresearch": 2456,
      "Ġpowerful": 2457,
      "aff": 2458,
      "Ġlibrary": 2459,
      "Ġarrived": 2460,
      "Ġstructure": 2461,
      "iter": 2462,
      "Ġknowledge": 2463,
      "Ġ//": 2464,
      "Ġgroup": 2465,
      "Ġdays": 2466,
      "Ġdue": 2467,
      "vert": 2468,
      "Ġcreating": 2469,
      "word": 2470,
      "Ġdangerous": 2471,
      "Ġseem": 2472,
      "Ġagainst": 2473,
      "Ġstat": 2474,
      "pper": 2475,
      "ĠMaybe": 2476,
      "Ġability": 2477,
      "Ġspl": 2478,
      "Ġagreed": 2479,
      "Ġsince": 2480,
      "Ġtrue": 2481,
      "PI": 2482,
      "echan": 2483,
      "Ġrace": 2484,
      "Ġregular": 2485,
      "light": 2486,
      "If": 2487,
      "Ġcream": 2488,
      "Ġaccur": 2489,
      "ĠY": 2490,
      "Ġcaus": 2491,
      "Ġegg": 2492,
      "ining": 2493,
      "Ġparticular": 2494,
      "Ġglo": 2495,
      "aur": 2496,
      "ĠâĢ": 2497,
      "Ġpaint": 2498,
      "Ġforgot": 2499,
      "ĠAss": 2500,
      "itch": 2501,
      "aced": 2502,
      "Ġrob": 2503,
      "Ġwithin": 2504,
      "Ġjour": 2505,
      "Ġhelps": 2506,
      "sidered": 2507,
      "irrel": 2508,
      "ĠSally": 2509,
      "Ġlikely": 2510,
      "Then": 2511,
      "ĠWith": 2512,
      "ulation": 2513,
      "Ġalone": 2514,
      "Ġleave": 2515,
      "Ġwid": 2516,
      "Ġsmell": 2517,
      "ral": 2518,
      "Ġbring": 2519,
      "ipe": 2520,
      "ww": 2521,
      "Ġcontext": 2522,
      "Ġprovides": 2523,
      "Ġonline": 2524,
      "Ġmodern": 2525,
      "Ġtheory": 2526,
      "ĠWhy": 2527,
      "oman": 2528,
      "Ġinte": 2529,
      "Ġconsidered": 2530,
      "Ġdistance": 2531,
      "Ġmemory": 2532,
      "Ġprompt": 2533,
      "hor": 2534,
      "Ġruns": 2535,
      "Ġbehavior": 2536,
      "apped": 2537,
      "Ġprofess": 2538,
      "ption": 2539,
      "of": 2540,
      "Ġsquirrel": 2541,
      "Ġlab": 2542,
      "How": 2543,
      "Ġpref": 2544,
      "Ġsud": 2545,
      "ĠBenny": 2546,
      "Ġmechan": 2547,
      "Ġcomes": 2548,
      "Ġerr": 2549,
      "othes": 2550,
      "Ġrelations": 2551,
      "Ġissues": 2552,
      "Ġhumans": 2553,
      "ĠEarth": 2554,
      "Ġfurther": 2555,
      "tr": 2556,
      "Ġhappen": 2557,
      "Ġfit": 2558,
      "Ġthough": 2559,
      "His": 2560,
      "ĠDaisy": 2561,
      "Ġwonderful": 2562,
      "ilos": 2563,
      "Ġpublic": 2564,
      "Ġtail": 2565,
      "por": 2566,
      "Ġtravel": 2567,
      "ĠNo": 2568,
      "ips": 2569,
      "ilosop": 2570,
      "Ġjoy": 2571,
      "ĠDe": 2572,
      "Ġpieces": 2573,
      "Ġhelpful": 2574,
      "orth": 2575,
      "Ġquant": 2576,
      "ock": 2577,
      "Ġtemper": 2578,
      "Ġterms": 2579,
      "Ġstrange": 2580,
      "At": 2581,
      "Ġremain": 2582,
      "Sam": 2583,
      "Ġpresent": 2584,
      "Ġideas": 2585,
      "Ġrepresent": 2586,
      "Ġharm": 2587,
      "Ġpiece": 2588,
      "Ġbenef": 2589,
      "Ġvisit": 2590,
      "Ġvol": 2591,
      "aps": 2592,
      "Ġexperi": 2593,
      "Ġgoals": 2594,
      "Ġwriting": 2595,
      "Ġlion": 2596,
      "Ġmeet": 2597,
      "Ġpul": 2598,
      "Ġdesigned": 2599,
      "Ġfiles": 2600,
      "asing": 2601,
      "ones": 2602,
      "ĠJim": 2603,
      "Ġcoo": 2604,
      "Ġmagic": 2605,
      "Ġpet": 2606,
      "Ġbrought": 2607,
      "19": 2608,
      "Ġreduce": 2609,
      "Ġpoints": 2610,
      "ĠWor": 2611,
      "Ġcastle": 2612,
      "af": 2613,
      "Ġlanguages": 2614,
      "Ġoptim": 2615,
      "Ġarea": 2616,
      "âĶĢâĶĢ": 2617,
      "Ġrul": 2618,
      "ground": 2619,
      "Ġchoose": 2620,
      "Ġaddress": 2621,
      "Ġcollect": 2622,
      "Ġnatural": 2623,
      "ĠPl": 2624,
      "inux": 2625,
      "gress": 2626,
      "Ġocc": 2627,
      "ĠBilly": 2628,
      "Ġess": 2629,
      "ountain": 2630,
      "Ġupd": 2631,
      "Ġvideo": 2632,
      "ploy": 2633,
      "Ġshap": 2634,
      "Ġdinner": 2635,
      "ĠAll": 2636,
      "Ġshared": 2637,
      "Ġmeasure": 2638,
      "Ġquality": 2639,
      "ilt": 2640,
      "Ġfru": 2641,
      "23": 2642,
      "Ġpink": 2643,
      "Ġnature": 2644,
      "\":": 2645,
      "Ġcompon": 2646,
      "ients": 2647,
      "Ġnon": 2648,
      "Ġdescrib": 2649,
      "Ġtimes": 2650,
      "Ġmaintain": 2651,
      "Ġparty": 2652,
      "Ġ\\": 2653,
      "Ġstyle": 2654,
      "Ġimag": 2655,
      "))": 2656,
      "ouble": 2657,
      "olution": 2658,
      "land": 2659,
      "Ġbowl": 2660,
      "Ġrelationship": 2661,
      "iling": 2662,
      "...": 2663,
      "Ġinteresting": 2664,
      "Ġwet": 2665,
      "Ġnorm": 2666,
      "Oh": 2667,
      "Ġgenerate": 2668,
      "meric": 2669,
      "Ġwelcome": 2670,
      "Ġfox": 2671,
      "arget": 2672,
      "Ġgovern": 2673,
      "ĠAre": 2674,
      "Ġowner": 2675,
      "Ġbusiness": 2676,
      "Ġfeed": 2677,
      "ĠCould": 2678,
      "ĠSc": 2679,
      "vant": 2680,
      "Ġstrate": 2681,
      "Ġbeach": 2682,
      "iques": 2683,
      "ced": 2684,
      "ãģ": 2685,
      "anch": 2686,
      "Ġcreated": 2687,
      "Ġsuper": 2688,
      "head": 2689,
      "Ġapplication": 2690,
      "Ġride": 2691,
      "Ġwear": 2692,
      "ĠJava": 2693,
      "Ġversion": 2694,
      "Ġpred": 2695,
      "ength": 2696,
      "Ġrespect": 2697,
      "Ġproblems": 2698,
      "Here": 2699,
      "Jack": 2700,
      "izing": 2701,
      "Ġcookies": 2702,
      "Ġchoice": 2703,
      "Ġlocal": 2704,
      "Ġobjects": 2705,
      "ection": 2706,
      "ĠEng": 2707,
      "PT": 2708,
      "Ġpictures": 2709,
      "Ġwasn": 2710,
      "ored": 2711,
      "icro": 2712,
      "Ġindividual": 2713,
      "ĠCl": 2714,
      "aj": 2715,
      "Ġcoll": 2716,
      "Ġincrease": 2717,
      "Ġnecessary": 2718,
      "Ġuseful": 2719,
      "ush": 2720,
      "vious": 2721,
      "ugg": 2722,
      "ude": 2723,
      "Ġmagical": 2724,
      "Ġdepending": 2725,
      "Ġdoc": 2726,
      "Ġabove": 2727,
      "ik": 2728,
      "Ġamazing": 2729,
      "reng": 2730,
      "Ġclothes": 2731,
      "Ġmov": 2732,
      "over": 2733,
      "ety": 2734,
      "Ġsecurity": 2735,
      "Ġpres": 2736,
      "Ġhill": 2737,
      "Ġfig": 2738,
      "Ġexerc": 2739,
      "'ve": 2740,
      "rap": 2741,
      "Ġquiet": 2742,
      "Ġapproach": 2743,
      "Ġgift": 2744,
      "Ġcity": 2745,
      "ĠIm": 2746,
      "Ġvariety": 2747,
      "Ġjoin": 2748,
      "Ġrole": 2749,
      "ĠX": 2750,
      "Ġstayed": 2751,
      "Ġant": 2752,
      "Ġheavy": 2753,
      "Ġsumm": 2754,
      "ready": 2755,
      "Ġservices": 2756,
      "ological": 2757,
      "Ġpay": 2758,
      "Ġtask": 2759,
      "ites": 2760,
      "Ġhungry": 2761,
      "Ġcomfort": 2762,
      "Ġrece": 2763,
      "Ġscary": 2764,
      "Ġmass": 2765,
      "ĠCreate": 2766,
      "Ġoptions": 2767,
      "Ġlater": 2768,
      "umb": 2769,
      "Ġtechniques": 2770,
      "Ġphilosop": 2771,
      "ording": 2772,
      "ĠAmeric": 2773,
      "Ġflying": 2774,
      "ĠAdditionally": 2775,
      "imately": 2776,
      "Ġdance": 2777,
      "Ġasks": 2778,
      "ogn": 2779,
      "('": 2780,
      "Ġefficient": 2781,
      "Ġspark": 2782,
      "Ġgen": 2783,
      "Ġeating": 2784,
      "Ġdisapp": 2785,
      "Ġbreat": 2786,
      "js": 2787,
      "ctions": 2788,
      "pecially": 2789,
      "Ġbegin": 2790,
      "Ġju": 2791,
      "Ġsecret": 2792,
      "Ġhelping": 2793,
      "ype": 2794,
      "arr": 2795,
      "Ġgrandma": 2796,
      "ruct": 2797,
      "],": 2798,
      "anks": 2799,
      "Ġ**": 2800,
      "Ġsounds": 2801,
      "Ġlate": 2802,
      "Ġlistened": 2803,
      "Ġdaddy": 2804,
      "Ġsquare": 2805,
      "Ġclimbed": 2806,
      "Do": 2807,
      "pose": 2808,
      "Ġdry": 2809,
      "Ġsmiles": 2810,
      "Ġbrown": 2811,
      "Ġautom": 2812,
      "sis": 2813,
      "ĠPr": 2814,
      "Ġwoods": 2815,
      "Ġdoctor": 2816,
      "ball": 2817,
      "yr": 2818,
      "idence": 2819,
      "iant": 2820,
      "Ġhealthy": 2821,
      "Ġalready": 2822,
      "ches": 2823,
      "Ġslowly": 2824,
      "uation": 2825,
      "used": 2826,
      "Ġpull": 2827,
      "ĠAmy": 2828,
      "Ġhid": 2829,
      "Ġsubject": 2830,
      "\")": 2831,
      "Ġpulled": 2832,
      "orrow": 2833,
      "Ġstar": 2834,
      "ĠUS": 2835,
      "Ġespecially": 2836,
      "Ġcompet": 2837,
      "Ġbasic": 2838,
      "Ġframe": 2839,
      "Ġanimal": 2840,
      "ucky": 2841,
      "Ġaud": 2842,
      "Ġplant": 2843,
      "sel": 2844,
      "Ġlive": 2845,
      "ĠLinux": 2846,
      "11": 2847,
      "Ġdiv": 2848,
      "'d": 2849,
      "ĠJen": 2850,
      "Ġcommunity": 2851,
      "Ġ9": 2852,
      "Ġtrack": 2853,
      "Ġjourney": 2854,
      "Ġdrive": 2855,
      "Ġindust": 2856,
      "uced": 2857,
      "Ġphysical": 2858,
      "ror": 2859,
      "Ġmethods": 2860,
      "Ġcy": 2861,
      "ibility": 2862,
      "Ġachieve": 2863,
      "Ġscen": 2864,
      "Ġcirc": 2865,
      "ither": 2866,
      "Ġcheese": 2867,
      "Ġelements": 2868,
      "icks": 2869,
      "Ġpriv": 2870,
      "Ġhide": 2871,
      "me": 2872,
      "uals": 2873,
      "Ġinvolves": 2874,
      "Ġet": 2875,
      "de": 2876,
      "Ġmouth": 2877,
      "Ġwouldn": 2878,
      "Ġhours": 2879,
      "Ġstars": 2880,
      "Ġnothing": 2881,
      "itar": 2882,
      "the": 2883,
      "Ġking": 2884,
      "Ġdest": 2885,
      "ĠMake": 2886,
      "Ġhor": 2887,
      "Ġvi": 2888,
      "sive": 2889,
      "oss": 2890,
      "Ġsingle": 2891,
      "just": 2892,
      "Ġcop": 2893,
      "add": 2894,
      "ateful": 2895,
      "Ġexpress": 2896,
      "Ġpuppy": 2897,
      "rength": 2898,
      "bal": 2899,
      "Ġresults": 2900,
      "Ġeasier": 2901,
      "Ġgain": 2902,
      "Ġbranch": 2903,
      "For": 2904,
      "Ġsister": 2905,
      "istic": 2906,
      "Ġareas": 2907,
      "Ġcountry": 2908,
      "text": 2909,
      "Ġsense": 2910,
      "ĠEn": 2911,
      "Ġsend": 2912,
      "erence": 2913,
      "Ġclosed": 2914,
      "Ġwar": 2915,
      "Ġcross": 2916,
      "Ġwaited": 2917,
      "Ġtarget": 2918,
      "Ġsilly": 2919,
      "Ġgoal": 2920,
      "Ġarm": 2921,
      "Ġgrateful": 2922,
      "Ġappear": 2923,
      "Ġbike": 2924,
      "idge": 2925,
      "Ġcharacters": 2926,
      "Finally": 2927,
      "Ġrecogn": 2928,
      "Ġintelligence": 2929,
      "Ġamazed": 2930,
      "Ġmill": 2931,
      "Ġnut": 2932,
      "AI": 2933,
      "Ġcapt": 2934,
      "Ġbutton": 2935,
      "Ġmist": 2936,
      "py": 2937,
      "Ġbrain": 2938,
      "ental": 2939,
      "Ġspread": 2940,
      "ivers": 2941,
      "âĢ¢": 2942,
      "ĠBy": 2943,
      "Ġsets": 2944,
      "works": 2945,
      "Ġpractice": 2946,
      "sing": 2947,
      "ocol": 2948,
      "Max": 2949,
      "Ġow": 2950,
      "andom": 2951,
      "Ġspot": 2952,
      "Ġaffect": 2953,
      "Ġlake": 2954,
      "âĸĪ": 2955,
      "Ġones": 2956,
      "ighb": 2957,
      "urop": 2958,
      "Ġplayer": 2959,
      "ĠFinally": 2960,
      "ml": 2961,
      "aken": 2962,
      "Ġadditional": 2963,
      "Ġeconomic": 2964,
      "Ġletter": 2965,
      "Ġsea": 2966,
      "Ġworried": 2967,
      "ox": 2968,
      "ties": 2969,
      "Why": 2970,
      "lection": 2971,
      "Ġplayers": 2972,
      "Ġservice": 2973,
      "Ġaccount": 2974,
      "Ġactiv": 2975,
      "Ġonce": 2976,
      "ĠUnited": 2977,
      "ru": 2978,
      "omet": 2979,
      "Ġblank": 2980,
      "olf": 2981,
      "Ġfunctions": 2982,
      "izes": 2983,
      "Ġteac": 2984,
      "Ġexpect": 2985,
      "12": 2986,
      "Ġconditions": 2987,
      "cient": 2988,
      "based": 2989,
      "Ġneighb": 2990,
      "Ġalgorithms": 2991,
      "selves": 2992,
      "Ġgraph": 2993,
      "Ġpromised": 2994,
      "ĠAssistant": 2995,
      "Ġstories": 2996,
      "ĠGod": 2997,
      "Ġmonkey": 2998,
      "Ġdetermine": 2999,
      "Ġbath": 3000,
      "Ġuniverse": 3001,
      "cy": 3002,
      "Ġobser": 3003,
      "urope": 3004,
      "bol": 3005,
      "Ġchick": 3006,
      "Ġhy": 3007,
      "Ġwhole": 3008,
      "Ġteach": 3009,
      "Ġoffer": 3010,
      "ember": 3011,
      "Ġoriginal": 3012,
      "Ch": 3013,
      "itor": 3014,
      "Ġprogress": 3015,
      "ample": 3016,
      "ann": 3017,
      "ony": 3018,
      "Ġ:": 3019,
      "Ġtypically": 3020,
      "Ġrisk": 3021,
      "Ġfre": 3022,
      "Ġmid": 3023,
      "cious": 3024,
      "Ġbroke": 3025,
      "Ġmilk": 3026,
      "Ġquantum": 3027,
      "Ġpan": 3028,
      "Ġsmaller": 3029,
      "verage": 3030,
      "Ġveget": 3031,
      "Ġpolitical": 3032,
      "Maybe": 3033,
      "Ġpost": 3034,
      "Ġfront": 3035,
      "ĠCom": 3036,
      "ards": 3037,
      "Ġshape": 3038,
      "Ġfing": 3039,
      "Ġavoid": 3040,
      "Ġvary": 3041,
      "Ġprincess": 3042,
      "Ġbase": 3043,
      "izz": 3044,
      "Ġscience": 3045,
      "col": 3046,
      "way": 3047,
      "Ġroad": 3048,
      "Ġteddy": 3049,
      "Ġdragon": 3050,
      "ike": 3051,
      "Ġdir": 3052,
      "eared": 3053,
      "osp": 3054,
      "umn": 3055,
      "oogle": 3056,
      "ĠMolly": 3057,
      "roid": 3058,
      "Ġcarr": 3059,
      "Okay": 3060,
      "Ġwish": 3061,
      "Ġinit": 3062,
      "Ġdoesn": 3063,
      "Ġfeels": 3064,
      "Ġattention": 3065,
      "Ġforward": 3066,
      "Ġexploring": 3067,
      "Ġincludes": 3068,
      "plic": 3069,
      "Ġthinks": 3070,
      "Ġprofessional": 3071,
      "Ġtun": 3072,
      "Ġaction": 3073,
      "Ġcarry": 3074,
      "Ġsuccessful": 3075,
      "Ġtown": 3076,
      "Over": 3077,
      "Ġreason": 3078,
      "ĠAPI": 3079,
      "Ġimages": 3080,
      "Ġanyone": 3081,
      "Ġadvant": 3082,
      "ĠWorld": 3083,
      "Ġbigger": 3084,
      "iod": 3085,
      "Ġrelated": 3086,
      "erg": 3087,
      "Ġnap": 3088,
      "Ġhandle": 3089,
      "Ġposition": 3090,
      "Ġphot": 3091,
      "Ġmaterials": 3092,
      "Ġdrink": 3093,
      "back": 3094,
      "gar": 3095,
      "Ġhtt": 3096,
      "irtual": 3097,
      "aries": 3098,
      "Ġdisplay": 3099,
      "ina": 3100,
      "atic": 3101,
      "ĠBl": 3102,
      "Ġtemperature": 3103,
      "Ġdam": 3104,
      "def": 3105,
      "Ġwhether": 3106,
      "Ġimpro": 3107,
      "Ġprevious": 3108,
      "Ġpredict": 3109,
      "Ġindividuals": 3110,
      "Ġrules": 3111,
      "Ġwings": 3112,
      "Ġsave": 3113,
      "ON": 3114,
      "Ex": 3115,
      "Ġce": 3116,
      "++": 3117,
      "Ġneg": 3118,
      "Hi": 3119,
      "Ġdatab": 3120,
      "eep": 3121,
      "Ġcandy": 3122,
      "ently": 3123,
      "irth": 3124,
      "Ġstarting": 3125,
      "Ġstre": 3126,
      "Ġrather": 3127,
      "----------------": 3128,
      "These": 3129,
      "ĠMar": 3130,
      "ĠYour": 3131,
      "Ġband": 3132,
      "Ġscientific": 3133,
      "Ġnormal": 3134,
      "Ġintrod": 3135,
      "Ġexact": 3136,
      "Ġaccept": 3137,
      "Ġdepends": 3138,
      "Ġgives": 3139,
      "Ġpatient": 3140,
      "Ġpeace": 3141,
      "ager": 3142,
      "Ġconstr": 3143,
      "Ġvill": 3144,
      "Ġloop": 3145,
      "la": 3146,
      "Ġexec": 3147,
      "Ġcolorful": 3148,
      "oms": 3149,
      "Ġdifference": 3150,
      "Ġsolve": 3151,
      "Ġgentle": 3152,
      "ĠInst": 3153,
      "sequ": 3154,
      "Ġtower": 3155,
      "unk": 3156,
      "Ġaltern": 3157,
      "Ġaf": 3158,
      "Ġevents": 3159,
      "abor": 3160,
      "Ġcontinue": 3161,
      "Ġemb": 3162,
      "Ġturns": 3163,
      "Ġstuck": 3164,
      "Ġoccur": 3165,
      "Ġbatter": 3166,
      "Ġsens": 3167,
      "Ġmatch": 3168,
      "Ġkiss": 3169,
      ",,": 3170,
      "Ġpig": 3171,
      "Ġonto": 3172,
      "ropri": 3173,
      "Ġchallenges": 3174,
      "âĸĴ": 3175,
      "Ġriver": 3176,
      "OK": 3177,
      "PU": 3178,
      "Ġfarmer": 3179,
      "ĠMr": 3180,
      "bs": 3181,
      "Ġitems": 3182,
      "Ġphone": 3183,
      "Ġearth": 3184,
      "lder": 3185,
      "roll": 3186,
      "use": 3187,
      "Ġleast": 3188,
      "Ġseries": 3189,
      "Ġgoes": 3190,
      "ancial": 3191,
      "Ġexplained": 3192,
      "gest": 3193,
      "Ġbite": 3194,
      "Ġbread": 3195,
      "Ġforget": 3196,
      "Ġhit": 3197,
      "unt": 3198,
      "Sure": 3199,
      "Ġplants": 3200,
      "Ġplanet": 3201,
      "Ġnearby": 3202,
      "Ġsett": 3203,
      "Ġtaste": 3204,
      "==": 3205,
      "ajor": 3206,
      "âĢĿ": 3207,
      "Ġrequirements": 3208,
      "Ġtrained": 3209,
      "Ġload": 3210,
      "Ġvalid": 3211,
      "Ġsmooth": 3212,
      "Ġsources": 3213,
      "Ġconvers": 3214,
      "Ġbuilt": 3215,
      "ĠDaddy": 3216,
      "ĠJill": 3217,
      "Ġpatterns": 3218,
      "aving": 3219,
      "soci": 3220,
      "Ġmonster": 3221,
      "Ġteacher": 3222,
      "Ġsuddenly": 3223,
      "ĠAt": 3224,
      "Ġsociety": 3225,
      "Ġfour": 3226,
      "Ġdevices": 3227,
      "There": 3228,
      "ĠEurope": 3229,
      "imate": 3230,
      "50": 3231,
      "OS": 3232,
      "Ġra": 3233,
      "astic": 3234,
      "Ġshapes": 3235,
      "Ġrequires": 3236,
      "path": 3237,
      "amer": 3238,
      "Ġplane": 3239,
      "asp": 3240,
      "Ġweek": 3241,
      "Ġlic": 3242,
      "Ġban": 3243,
      "Ġstrength": 3244,
      "erences": 3245,
      "Ġperiod": 3246,
      "ĠGo": 3247,
      "Ġemot": 3248,
      "ologies": 3249,
      "Ġtrust": 3250,
      "Ġmedia": 3251,
      "Ġtraditional": 3252,
      "dd": 3253,
      "Ġhighly": 3254,
      "bon": 3255,
      "dom": 3256,
      "Ġadjust": 3257,
      "Ġ18": 3258,
      "Ġtreasure": 3259,
      "Ġfoot": 3260,
      "Ġreact": 3261,
      "TMt": 3262,
      "Ġdirty": 3263,
      "Ġassist": 3264,
      "Ġcaught": 3265,
      "Ġidentify": 3266,
      "Ġwond": 3267,
      "aches": 3268,
      "inary": 3269,
      "Ġformat": 3270,
      "Ġadventures": 3271,
      "Ġsepar": 3272,
      "Ġtalking": 3273,
      "file": 3274,
      "QL": 3275,
      "Ġdro": 3276,
      "Ġeverywhere": 3277,
      "body": 3278,
      "Ġballoon": 3279,
      "Ġneck": 3280,
      "ipped": 3281,
      "Ġneural": 3282,
      "Ġminim": 3283,
      "Ġshop": 3284,
      "ension": 3285,
      "Ġcrying": 3286,
      "Ġtaken": 3287,
      "Ġspo": 3288,
      "Ġrobot": 3289,
      "Ġstepped": 3290,
      "Ġancient": 3291,
      "raid": 3292,
      "Ġprovided": 3293,
      "Ġthrew": 3294,
      "Ġfeet": 3295,
      "Ġwidely": 3296,
      "Ġbelong": 3297,
      "ield": 3298,
      "augh": 3299,
      "Ġshoes": 3300,
      "Wh": 3301,
      "itation": 3302,
      "Ġtransform": 3303,
      "ortun": 3304,
      "Ġpow": 3305,
      "Ġplaces": 3306,
      "Please": 3307,
      "Ġshel": 3308,
      "Ġcountries": 3309,
      "alf": 3310,
      "Ġshell": 3311,
      "Ġconcern": 3312,
      "Ġparts": 3313,
      "Ġstream": 3314,
      "Ġadm": 3315,
      "round": 3316,
      "Ġdetails": 3317,
      "Ġfairy": 3318,
      "aling": 3319,
      "Ġapple": 3320,
      "ault": 3321,
      "Ġrelie": 3322,
      "data": 3323,
      "Ġchair": 3324,
      "Ġnose": 3325,
      "Ġevidence": 3326,
      "uments": 3327,
      "Ġsuit": 3328,
      "Ġafraid": 3329,
      "oom": 3330,
      "acked": 3331,
      "ying": 3332,
      "Ġbalance": 3333,
      "Ġmeant": 3334,
      "Ġeffort": 3335,
      "ailed": 3336,
      "Ġbask": 3337,
      "Ġeth": 3338,
      "Ġaccident": 3339,
      "lying": 3340,
      "Ġoption": 3341,
      "ung": 3342,
      "ĠChe": 3343,
      "Ġmajor": 3344,
      "htt": 3345,
      "ER": 3346,
      "ropriate": 3347,
      "Ġeither": 3348,
      "ĠOr": 3349,
      "ucing": 3350,
      "arp": 3351,
      "Ġgovernment": 3352,
      "Ġ&": 3353,
      "bit": 3354,
      "Ġdep": 3355,
      "iction": 3356,
      "ĠDon": 3357,
      "Ġansw": 3358,
      "Ġparam": 3359,
      "aging": 3360,
      "Ġbench": 3361,
      "Ġble": 3362,
      "ĠSe": 3363,
      "Ġcreative": 3364,
      "Ġearly": 3365,
      "igate": 3366,
      "iment": 3367,
      "Ġgold": 3368,
      "Ġround": 3369,
      "Ġpage": 3370,
      "bles": 3371,
      "Ġbirth": 3372,
      "ounter": 3373,
      "Ġmyster": 3374,
      "Ġguitar": 3375,
      "Ġholding": 3376,
      "Ġlon": 3377,
      "Ġmax": 3378,
      "ulate": 3379,
      "Ġroot": 3380,
      "python": 3381,
      "Ġhoped": 3382,
      "Ġage": 3383,
      "iency": 3384,
      "Ġloss": 3385,
      "icate": 3386,
      "ius": 3387,
      "ĠStates": 3388,
      "Ġdiscuss": 3389,
      "Ġdefin": 3390,
      "Ġmountain": 3391,
      "Ġmoved": 3392,
      "My": 3393,
      "Ġweather": 3394,
      "Ġspend": 3395,
      "aughter": 3396,
      "~~": 3397,
      "acing": 3398,
      "Ġexpen": 3399,
      "Ġitself": 3400,
      "Ġdolls": 3401,
      "Ġeventually": 3402,
      "Al": 3403,
      "ĠJust": 3404,
      "ah": 3405,
      "Ġwild": 3406,
      "Ġprob": 3407,
      "Ġfine": 3408,
      "Ġing": 3409,
      "ope": 3410,
      "ender": 3411,
      "Ġrout": 3412,
      "Ġarch": 3413,
      "Ġtwins": 3414,
      "utions": 3415,
      "Ġfields": 3416,
      "Ġgar": 3417,
      "Ġassoci": 3418,
      "Ġpositive": 3419,
      "Ġbasket": 3420,
      "Ġbucket": 3421,
      "rast": 3422,
      "Ġadapt": 3423,
      "ffee": 3424,
      "ĠEmma": 3425,
      "hel": 3426,
      "ĠDes": 3427,
      "go": 3428,
      "Ġthrow": 3429,
      "redients": 3430,
      "Ġdatas": 3431,
      "Ġlength": 3432,
      "Ġconsist": 3433,
      "Ġwritten": 3434,
      "ula": 3435,
      "Overall": 3436,
      "raph": 3437,
      "Ġnest": 3438,
      "adow": 3439,
      "Ġupset": 3440,
      "Ġthemselves": 3441,
      "Ġful": 3442,
      "Ġhardware": 3443,
      "Of": 3444,
      "empt": 3445,
      "Ġessential": 3446,
      "Ġusually": 3447,
      "Ġblanket": 3448,
      "Ġorange": 3449,
      "Ġlower": 3450,
      "Ġswings": 3451,
      "ari": 3452,
      "Ġconsum": 3453,
      "luff": 3454,
      "ĠApp": 3455,
      "Script": 3456,
      "Ġfinancial": 3457,
      "Ġcompan": 3458,
      "Ġmine": 3459,
      "Ġdrove": 3460,
      "igg": 3461,
      "Ġadvanced": 3462,
      "Ġerror": 3463,
      "Ġrecord": 3464,
      "Ġpush": 3465,
      "elling": 3466,
      "Ġgrand": 3467,
      "Ġcomplete": 3468,
      "oop": 3469,
      "ĠMary": 3470,
      "Ġstreet": 3471,
      "Ġhon": 3472,
      "print": 3473,
      "Ġadvice": 3474,
      "uth": 3475,
      "Ġoven": 3476,
      "Ġdecision": 3477,
      "Ġrequired": 3478,
      "Ġexciting": 3479,
      "Ġforce": 3480,
      "Ġfamous": 3481,
      "Ġtiny": 3482,
      "Ġarray": 3483,
      "Ġdocument": 3484,
      "ĠMin": 3485,
      "uel": 3486,
      "Ġforever": 3487,
      "Ġactions": 3488,
      "het": 3489,
      "Ġdeb": 3490,
      "Ġreview": 3491,
      "pret": 3492,
      "Ġpushed": 3493,
      "Ġheat": 3494,
      "Ġcou": 3495,
      "ili": 3496,
      "Ġscreen": 3497,
      "ison": 3498,
      "Ġlives": 3499,
      "Ġled": 3500,
      "elly": 3501,
      "ĠFr": 3502,
      "ificial": 3503,
      "Ġemail": 3504,
      "Ġmap": 3505,
      "Ġconfig": 3506,
      "Ġasking": 3507,
      "Ġcray": 3508,
      "Ġlunch": 3509,
      "Ġinternet": 3510,
      "Ġimpress": 3511,
      "Ġvariable": 3512,
      "Ġboard": 3513,
      "Ġmoon": 3514,
      "Ġbelief": 3515,
      "Ġrelevant": 3516,
      "Ġ==": 3517,
      "Ġsitting": 3518,
      "log": 3519,
      "Ġrandom": 3520,
      "ĠNew": 3521,
      "Ġeffective": 3522,
      "Ġsolution": 3523,
      "Ġeggs": 3524,
      "Ġdirectory": 3525,
      "angle": 3526,
      "Ġowl": 3527,
      "ted": 3528,
      "ival": 3529,
      "Ġanalysis": 3530,
      "une": 3531,
      "Ġclapped": 3532,
      "âĸĪâĸĪ": 3533,
      "Ġopportun": 3534,
      "isions": 3535,
      "Ġbee": 3536,
      "Ġmedical": 3537,
      "Ġpurpose": 3538,
      "Ġchicken": 3539,
      "Ġproperties": 3540,
      "aid": 3541,
      "ero": 3542,
      "osed": 3543,
      "Ġprep": 3544,
      "Ġelement": 3545,
      "Ġinn": 3546,
      "source": 3547,
      "Ġgrowth": 3548,
      "Ġestab": 3549,
      "Ġhttps": 3550,
      "ĠInt": 3551,
      "Ġver": 3552,
      "ystem": 3553,
      "enced": 3554,
      "Ġalm": 3555,
      "Ġnoises": 3556,
      "Ġdaughter": 3557,
      "ĠChat": 3558,
      "ived": 3559,
      "Ġ12": 3560,
      "plain": 3561,
      "Ġjuice": 3562,
      "Ġhello": 3563,
      "Ġsymbol": 3564,
      "Ġpackage": 3565,
      "Ġdropped": 3566,
      "Ġcontribut": 3567,
      "Ġlevels": 3568,
      "Ġsequ": 3569,
      "Ġspin": 3570,
      "Ġcells": 3571,
      "like": 3572,
      "Ġpuzz": 3573,
      "Ġconsequ": 3574,
      "Ġprojects": 3575,
      "Ġleading": 3576,
      "Ġproperty": 3577,
      "Ġproduce": 3578,
      "Ġeffects": 3579,
      "fr": 3580,
      "Ġpython": 3581,
      "Ġge": 3582,
      "ights": 3583,
      "Ġinsp": 3584,
      "son": 3585,
      "Ġcases": 3586,
      "Ġprim": 3587,
      "Ġmoving": 3588,
      "Ġnames": 3589,
      "Ġyet": 3590,
      "ses": 3591,
      "Ġwise": 3592,
      "Ġoperating": 3593,
      "Ġrub": 3594,
      "Ġdatabase": 3595,
      "kn": 3596,
      "ulations": 3597,
      "erson": 3598,
      "Ġconcepts": 3599,
      "Ġweak": 3600,
      "indows": 3601,
      "Ġ30": 3602,
      "Ġlocation": 3603,
      "Ġmovie": 3604,
      "Ġmis": 3605,
      "Ġfigure": 3606,
      "Ġlimit": 3607,
      "Ġyard": 3608,
      "num": 3609,
      "Ġflex": 3610,
      "Ġintegr": 3611,
      "ĠDis": 3612,
      "Ġproviding": 3613,
      "Ġseemed": 3614,
      "Ġdetermined": 3615,
      "Ġcheered": 3616,
      "Ġscr": 3617,
      "Ġprocessing": 3618,
      "Ġlift": 3619,
      "Ġselect": 3620,
      "Ġarms": 3621,
      "ĠRes": 3622,
      "Ġfill": 3623,
      "Ġbenefits": 3624,
      "Ġappropriate": 3625,
      "box": 3626,
      "Ġemploy": 3627,
      "ler": 3628,
      "Ġfrequ": 3629,
      "ffic": 3630,
      "Ġeleph": 3631,
      "itle": 3632,
      "Ġwave": 3633,
      "Ġabs": 3634,
      "Ġincor": 3635,
      "15": 3636,
      "ĠGoogle": 3637,
      "ley": 3638,
      "ĠCons": 3639,
      "https": 3640,
      "Ġsurface": 3641,
      "Ġsafety": 3642,
      "Ġpromise": 3643,
      "Ġsoup": 3644,
      "uration": 3645,
      "Ġpurple": 3646,
      "Ġsummary": 3647,
      "ĠSom": 3648,
      "Ġrocks": 3649,
      "bow": 3650,
      "point": 3651,
      "Ġthread": 3652,
      "vely": 3653,
      "ĠAmerican": 3654,
      "On": 3655,
      "Ġreli": 3656,
      "Ġproduction": 3657,
      "However": 3658,
      "Ġcomponents": 3659,
      "Ġwoman": 3660,
      "Now": 3661,
      "Ġwatching": 3662,
      "ustr": 3663,
      "Ġple": 3664,
      "Ġsharp": 3665,
      "\">": 3666,
      "Ġworth": 3667,
      "ĠFluff": 3668,
      "Ġoffers": 3669,
      "Ġcute": 3670,
      "oes": 3671,
      "ĠRust": 3672,
      "ĠJimmy": 3673,
      "Ġvirtual": 3674,
      "AM": 3675,
      "ply": 3676,
      "Ġprinci": 3677,
      "abilities": 3678,
      "Ġetc": 3679,
      "ĠSet": 3680,
      "Ġ200": 3681,
      "eters": 3682,
      "Ġeasily": 3683,
      "Ġindepend": 3684,
      "Ġsang": 3685,
      "Ġfund": 3686,
      "Ġeye": 3687,
      "ĠGrandma": 3688,
      "omes": 3689,
      "Ġrelax": 3690,
      "dr": 3691,
      "sp": 3692,
      "Ġseek": 3693,
      "By": 3694,
      "list": 3695,
      "Ġmail": 3696,
      "Hey": 3697,
      "Ġauthor": 3698,
      "Ġhuge": 3699,
      "GPT": 3700,
      "Ġadded": 3701,
      "Ġlonely": 3702,
      "resh": 3703,
      "Ġexperiences": 3704,
      "')": 3705,
      "Ġsick": 3706,
      "Mia": 3707,
      "Ġsongs": 3708,
      "asons": 3709,
      "ĠMama": 3710,
      "Ġsinging": 3711,
      "Ġwondered": 3712,
      "Ġstrateg": 3713,
      "Ġque": 3714,
      "Ġtax": 3715,
      "lict": 3716,
      "Ġamong": 3717,
      "Ġexplan": 3718,
      "Ġscale": 3719,
      "Ġfruit": 3720,
      "ana": 3721,
      "Ġ100": 3722,
      "lies": 3723,
      "yard": 3724,
      "atively": 3725,
      "Ġshook": 3726,
      "Ġdeveloped": 3727,
      "ging": 3728,
      "Ġdistrib": 3729,
      "ĊĠĊ": 3730,
      "Ġign": 3731,
      "Ġcred": 3732,
      "ges": 3733,
      "Ġattempt": 3734,
      "Ġmeas": 3735,
      "17": 3736,
      "();": 3737,
      "Ġpen": 3738,
      "ynam": 3739,
      "Bob": 3740,
      "Ġeduc": 3741,
      "Ġglass": 3742,
      "Ġcloth": 3743,
      "itect": 3744,
      "Ġintern": 3745,
      "Ġbusy": 3746,
      "Ġfixed": 3747,
      "Ġdevice": 3748,
      "ification": 3749,
      "Ġlarger": 3750,
      "Ġrot": 3751,
      "Ġhugs": 3752,
      "airs": 3753,
      "ĠEnglish": 3754,
      "Ġspeak": 3755,
      "Ġmanagement": 3756,
      "erv": 3757,
      "cean": 3758,
      "List": 3759,
      "Ġaverage": 3760,
      "Be": 3761,
      "met": 3762,
      "Ġdetect": 3763,
      "Ġconscious": 3764,
      "Ġglobal": 3765,
      "Ġdead": 3766,
      "ĠCome": 3767,
      "ĠâĢľ": 3768,
      "gre": 3769,
      "ĠPh": 3770,
      "Ġproducts": 3771,
      "Ġjar": 3772,
      "Ġperspect": 3773,
      "uild": 3774,
      "lebr": 3775,
      "Ġbackyard": 3776,
      "pth": 3777,
      "Ġremind": 3778,
      "medi": 3779,
      "from": 3780,
      "Ġoverall": 3781,
      "^^": 3782,
      "Ġquite": 3783,
      "ĠGerm": 3784,
      "Ġregard": 3785,
      "Ġprior": 3786,
      "Ġut": 3787,
      "Ġspent": 3788,
      "âĸĴâĸĴ": 3789,
      "fact": 3790,
      "Ġsurround": 3791,
      "Ġcommunication": 3792,
      "Ġmiddle": 3793,
      "uable": 3794,
      "Ġapolog": 3795,
      "Ġfinish": 3796,
      "ission": 3797,
      "SS": 3798,
      "Ġwoke": 3799,
      "Ġvegetables": 3800,
      "Ġaspect": 3801,
      "arning": 3802,
      "Ġstates": 3803,
      "Ġtransl": 3804,
      "Ġtor": 3805,
      "ably": 3806,
      "Ġculture": 3807,
      "cent": 3808,
      "ocked": 3809,
      "place": 3810,
      "Ġdevelopers": 3811,
      "Ġefficiency": 3812,
      "inter": 3813,
      "TML": 3814,
      "Ġtrip": 3815,
      "Ġtrouble": 3816,
      "Ġactivities": 3817,
      "pty": 3818,
      "Ġaccidentally": 3819,
      "Ġcompared": 3820,
      "Ġfence": 3821,
      "Ġcoffee": 3822,
      "Ġdriver": 3823,
      "Ġbirthday": 3824,
      "Ġmanage": 3825,
      "ey": 3826,
      "Ġbottle": 3827,
      "Ġlimited": 3828,
      "Ġcomfortable": 3829,
      "18": 3830,
      "Ġmad": 3831,
      "Ġcultural": 3832,
      "Ġheight": 3833,
      "Ġsituation": 3834,
      "Ġhidden": 3835,
      "Ġnovel": 3836,
      "aged": 3837,
      "izations": 3838,
      "Ġsugar": 3839,
      "overed": 3840,
      "Ġtim": 3841,
      "Ġsurv": 3842,
      "ocolate": 3843,
      "ky": 3844,
      "Ġgrab": 3845,
      "Ġbub": 3846,
      "Ġtips": 3847,
      "Ġtouc": 3848,
      "ĠJavaScript": 3849,
      "Ġoil": 3850,
      "html": 3851,
      "volution": 3852,
      "Ġexercise": 3853,
      "Ġhoney": 3854,
      "ĠTV": 3855,
      "Ġdamage": 3856,
      "Ġpocket": 3857,
      "known": 3858,
      "Re": 3859,
      "eat": 3860,
      "Ġsynt": 3861,
      "eor": 3862,
      "host": 3863,
      "Ġcalm": 3864,
      "Ġthroughout": 3865,
      "':": 3866,
      "Ġseed": 3867,
      "Ġscore": 3868,
      "Ġmathematical": 3869,
      "Ġwand": 3870,
      "ators": 3871,
      "Ġsold": 3872,
      "Ġsimply": 3873,
      "Ġarchitect": 3874,
      "Ġaudience": 3875,
      "Ġrate": 3876,
      "ancing": 3877,
      "Ġcelebr": 3878,
      "Ġdiet": 3879,
      "AN": 3880,
      "flow": 3881,
      "Ġblood": 3882,
      "Ġprocesses": 3883,
      "Ġhistor": 3884,
      "Ġshr": 3885,
      "Ġfinding": 3886,
      "ĠGive": 3887,
      "izza": 3888,
      "Ġtow": 3889,
      "Ġgenerally": 3890,
      "Ġexpensive": 3891,
      "Ġnav": 3892,
      "ĠThanks": 3893,
      "Ġaware": 3894,
      "Ġindustry": 3895,
      "Ġmaybe": 3896,
      "Ġcreatures": 3897,
      "ĠInside": 3898,
      "Ġstorm": 3899,
      "Ġcomputing": 3900,
      "Ġfive": 3901,
      "ĠWho": 3902,
      "Ġpoor": 3903,
      "LE": 3904,
      "care": 3905,
      "ĠEl": 3906,
      "55": 3907,
      "down": 3908,
      "Ġsil": 3909,
      "Ġmen": 3910,
      "Ġ>": 3911,
      "Ġissue": 3912,
      "Ġstandard": 3913,
      "pa": 3914,
      "Ġburn": 3915,
      "Ġsharing": 3916,
      "Ġaddition": 3917,
      "Ġassistant": 3918,
      "Ġnaught": 3919,
      "emember": 3920,
      "Ġpassed": 3921,
      "Ġbud": 3922,
      "Ġgrav": 3923,
      "Pro": 3924,
      "Ġextra": 3925,
      "ĠSer": 3926,
      "Ġvaluable": 3927,
      "Ġelectric": 3928,
      "ĠQu": 3929,
      "Ġencour": 3930,
      "ĠRed": 3931,
      "Ġshows": 3932,
      "Ġempty": 3933,
      "Ġdrum": 3934,
      "Ġallowing": 3935,
      "Ġstir": 3936,
      "Ġgrad": 3937,
      "Ġcover": 3938,
      "Ġconsequences": 3939,
      "ien": 3940,
      "mb": 3941,
      "Ġrich": 3942,
      "Ġdogs": 3943,
      "Ġfollows": 3944,
      "ram": 3945,
      "date": 3946,
      "Ġdownload": 3947,
      "Ġcamer": 3948,
      "Ġbreath": 3949,
      "sole": 3950,
      "Ġnaughty": 3951,
      "Ġchocolate": 3952,
      "kes": 3953,
      "Ġgiant": 3954,
      "alse": 3955,
      "asc": 3956,
      "ipp": 3957,
      "Ġdescript": 3958,
      "Ġdigital": 3959,
      "Ġparticularly": 3960,
      "Ġfeather": 3961,
      "Ġconstant": 3962,
      "now": 3963,
      "Ġimm": 3964,
      "ivil": 3965,
      "Ġspir": 3966,
      "Ġclouds": 3967,
      "22": 3968,
      "IN": 3969,
      "Ġcamp": 3970,
      "Ġcompanies": 3971,
      "Ġstri": 3972,
      "Ġsail": 3973,
      "Ġord": 3974,
      "Ġdifferences": 3975,
      "Ġinvolved": 3976,
      "Ġlegs": 3977,
      "script": 3978,
      "Ġeval": 3979,
      "Ġspecies": 3980,
      "Ġhost": 3981,
      "Ġdim": 3982,
      "Ġremove": 3983,
      "Ġur": 3984,
      "Ġstone": 3985,
      "])": 3986,
      "Ġesc": 3987,
      "Ġbackground": 3988,
      "Ġproperly": 3989,
      "Ġwearing": 3990,
      "Ġingredients": 3991,
      "Ġmonth": 3992,
      "Ġsecure": 3993,
      "Ġthinking": 3994,
      "ait": 3995,
      "Ġdate": 3996,
      "Ġcave": 3997,
      "Ġaccurate": 3998,
      "Ġapples": 3999,
      "30": 4000,
      "ĠWindows": 4001,
      "osaur": 4002,
      "hold": 4003,
      "Ġswimming": 4004,
      "ĠHTML": 4005,
      "Ġinterpret": 4006,
      "Ġda": 4007,
      "Ġelephant": 4008,
      "Ġchat": 4009,
      "Your": 4010,
      "Ġspell": 4011,
      "Ġunivers": 4012,
      "Ġcolumn": 4013,
      "Ġsetting": 4014,
      "Ġunderstood": 4015,
      "www": 4016,
      "Ġswam": 4017,
      "Ġvisual": 4018,
      "Ġlegal": 4019,
      "Ġrecommended": 4020,
      "Ġalmost": 4021,
      "AT": 4022,
      "Ġkeyboard": 4023,
      "Ġassociated": 4024,
      "ĠMark": 4025,
      "Ġentire": 4026,
      "Ġpin": 4027,
      "Ġinfluence": 4028,
      "icle": 4029,
      "Ġdesired": 4030,
      "With": 4031,
      "omen": 4032,
      "Â°": 4033,
      "Ġsimpl": 4034,
      "Ġdecisions": 4035,
      "Ġallowed": 4036,
      "AR": 4037,
      "Ġocean": 4038,
      "Ġmention": 4039,
      "Ġactually": 4040,
      "ancy": 4041,
      "Ġinvolve": 4042,
      "Ġprice": 4043,
      "Ġlayer": 4044,
      "arily": 4045,
      "Ġrainbow": 4046,
      "lla": 4047,
      "Ġcurrently": 4048,
      "Ġcorner": 4049,
      "Ġprec": 4050,
      "aming": 4051,
      "aa": 4052,
      "lished": 4053,
      "Ġcraw": 4054,
      "Ġactivity": 4055,
      "ĠDr": 4056,
      "Ġdise": 4057,
      "eed": 4058,
      "Ġ?": 4059,
      "Ġcentury": 4060,
      "Ġprograms": 4061,
      "Ġconflict": 4062,
      "Ġcenter": 4063,
      "Just": 4064,
      "sych": 4065,
      "Ġdescribe": 4066,
      "Ġcozy": 4067,
      "ĠĠĠĠ": 4068,
      "Ġtouched": 4069,
      "lt": 4070,
      "Ġring": 4071,
      "Ġclever": 4072,
      "Ġfilm": 4073,
      "Ġinnov": 4074,
      "Good": 4075,
      "Ġeager": 4076,
      "Ġasleep": 4077,
      "Ġpointed": 4078,
      "16": 4079,
      "---": 4080,
      "ners": 4081,
      "bra": 4082,
      "Ġinterested": 4083,
      "Ġwaves": 4084,
      "Ġdom": 4085,
      "Ġfear": 4086,
      "ians": 4087,
      "Ġsear": 4088,
      "Ġdirectly": 4089,
      "erry": 4090,
      "soft": 4091,
      "Ġviol": 4092,
      "ĠSammy": 4093,
      "Ġedge": 4094,
      "Ġaim": 4095,
      "Ġfat": 4096,
      "Ġsandw": 4097,
      "Ġwaiting": 4098,
      "Ġattack": 4099,
      "hers": 4100,
      "ured": 4101,
      "Ġarr": 4102,
      "pite": 4103,
      "new": 4104,
      "Ġflour": 4105,
      "Ġtot": 4106,
      "Ġgas": 4107,
      "Tr": 4108,
      "Ġpill": 4109,
      "Ġhalf": 4110,
      "Ġcoat": 4111,
      "Ġnetworks": 4112,
      "Ġlif": 4113,
      "Ġbought": 4114,
      "book": 4115,
      "Ġthick": 4116,
      "arl": 4117,
      "oting": 4118,
      "icial": 4119,
      "elp": 4120,
      "Ġrespond": 4121,
      "Ġtom": 4122,
      "Ġlines": 4123,
      "Ġgets": 4124,
      "Ġsunny": 4125,
      "Ġlaughing": 4126,
      "inc": 4127,
      "uate": 4128,
      "ĠFluffy": 4129,
      "Ġlucky": 4130,
      "otted": 4131,
      "Ġtomat": 4132,
      "amb": 4133,
      "Ġstudents": 4134,
      "shine": 4135,
      "Ġvariables": 4136,
      "Ġrelieved": 4137,
      "Ġmedic": 4138,
      "Ġdiam": 4139,
      "Ġfighting": 4140,
      "ID": 4141,
      "Ġpizza": 4142,
      "ĠInd": 4143,
      "Ġder": 4144,
      "Ġkite": 4145,
      "ĠBrit": 4146,
      "Ġtalked": 4147,
      "Ġresponsible": 4148,
      "Ġrelationships": 4149,
      "Ġsalt": 4150,
      "Ġtries": 4151,
      "Ġrow": 4152,
      "Ġbottom": 4153,
      "Ġdiscovered": 4154,
      "bed": 4155,
      "Ġconfused": 4156,
      "lex": 4157,
      "Ġstret": 4158,
      "Ġâ": 4159,
      "Ġcondition": 4160,
      "Ġputs": 4161,
      "Ġtopic": 4162,
      "Ġgiving": 4163,
      "istics": 4164,
      "ribute": 4165,
      "Ġvillage": 4166,
      "Ġ16": 4167,
      "Ġzoo": 4168,
      "Ġfan": 4169,
      "Ġtells": 4170,
      "Ġhol": 4171,
      "arc": 4172,
      "Ġdecor": 4173,
      "Ġneighbor": 4174,
      "Ġreward": 4175,
      "iger": 4176,
      "base": 4177,
      "13": 4178,
      "Ġdistribution": 4179,
      "Ġcho": 4180,
      "Ġequation": 4181,
      "ĠCol": 4182,
      "Ġmud": 4183,
      "ĠTw": 4184,
      "force": 4185,
      "Ġoperations": 4186,
      "aks": 4187,
      "Ġdynam": 4188,
      "ĠEven": 4189,
      "resp": 4190,
      "ĠSu": 4191,
      "Ġimportance": 4192,
      "ensity": 4193,
      "ended": 4194,
      "ograp": 4195,
      "Ġcontains": 4196,
      "Ġgently": 4197,
      "oups": 4198,
      "Ġloves": 4199,
      "unction": 4200,
      "Ġfeature": 4201,
      "Ġthreat": 4202,
      "Ġskin": 4203,
      "Ġguid": 4204,
      "aws": 4205,
      "Ġcommonly": 4206,
      "Ġducks": 4207,
      "Ġdemon": 4208,
      "nic": 4209,
      "Ġincred": 4210,
      "Ġsolar": 4211,
      "Ġlat": 4212,
      "ĠAm": 4213,
      "Ġinitial": 4214,
      "RE": 4215,
      "ĠChatGPT": 4216,
      "Ġer": 4217,
      "Ġmetal": 4218,
      "phas": 4219,
      "ensions": 4220,
      "Ġcreates": 4221,
      "ception": 4222,
      "Ġconnection": 4223,
      "Ġappeared": 4224,
      "isa": 4225,
      "TT": 4226,
      "ino": 4227,
      "Ġdirt": 4228,
      "ache": 4229,
      "Ġmodify": 4230,
      "Ġtomorrow": 4231,
      "Ġid": 4232,
      "Ġpud": 4233,
      "Ġtechnologies": 4234,
      "Ġcomplexity": 4235,
      "Ġvan": 4236,
      "Ġspoon": 4237,
      "ittens": 4238,
      "Ġflag": 4239,
      "Ġdrop": 4240,
      "Ġserious": 4241,
      "Ġinstruct": 4242,
      "ÅĵI": 4243,
      "Ġchallenging": 4244,
      "Ġtopics": 4245,
      "Ġpressure": 4246,
      "itude": 4247,
      "Ġfinger": 4248,
      "Ġcamera": 4249,
      "value": 4250,
      "Ġdish": 4251,
      "Ġartificial": 4252,
      "Ġmir": 4253,
      "nam": 4254,
      "ĠInc": 4255,
      "Note": 4256,
      "rupt": 4257,
      "arry": 4258,
      "64": 4259,
      "ĠSoon": 4260,
      "yond": 4261,
      "Ġreport": 4262,
      "Ġlibraries": 4263,
      "Later": 4264,
      "Ġmaxim": 4265,
      "Ġsunshine": 4266,
      "Ġdemand": 4267,
      "Ġinvent": 4268,
      "Ġcand": 4269,
      "rie": 4270,
      "Ġformula": 4271,
      "ising": 4272,
      "Ġmole": 4273,
      "Ġattract": 4274,
      "attle": 4275,
      "Ġkid": 4276,
      "ees": 4277,
      "sv": 4278,
      "Ġtea": 4279,
      "omp": 4280,
      "icrosoft": 4281,
      "loc": 4282,
      "yg": 4283,
      "onom": 4284,
      "Ġglow": 4285,
      "Ġnp": 4286,
      "Ġwhist": 4287,
      "Ġsmiling": 4288,
      "ĠName": 4289,
      "Ġcircle": 4290,
      "Ġsearched": 4291,
      "Ġoffice": 4292,
      "ĠStart": 4293,
      "Ġtasty": 4294,
      "Ġdataset": 4295,
      "Ġbeliefs": 4296,
      "ST": 4297,
      "Ġfaces": 4298,
      "Ġdetailed": 4299,
      "Ġreplace": 4300,
      "su": 4301,
      "ĠCheck": 4302,
      "ĠWar": 4303,
      "ĠEd": 4304,
      "Ġapply": 4305,
      "Ġphysics": 4306,
      "lusion": 4307,
      "Ġwag": 4308,
      "Ġbul": 4309,
      "Ġplate": 4310,
      "Ġdecide": 4311,
      "rench": 4312,
      "Ġtotal": 4313,
      "lude": 4314,
      "Ġcreation": 4315,
      "ai": 4316,
      "ĠHello": 4317,
      "32": 4318,
      "Ġfresh": 4319,
      "ĠMan": 4320,
      "Ġbush": 4321,
      "ella": 4322,
      "Ġcalculate": 4323,
      "Ġmovement": 4324,
      "Ġdefine": 4325,
      "ĠChr": 4326,
      "Ġcombination": 4327,
      "Ġfeedback": 4328,
      "Ġreflect": 4329,
      "ĠEmily": 4330,
      "Ġchallen": 4331,
      "Ġstructures": 4332,
      "ĠPe": 4333,
      "Ġclimate": 4334,
      "Ġincreasing": 4335,
      "Ġdough": 4336,
      "eal": 4337,
      "Ġsne": 4338,
      "yal": 4339,
      "Ġbrows": 4340,
      "Ġapart": 4341,
      "che": 4342,
      "but": 4343,
      "Ġsnack": 4344,
      "term": 4345,
      "Ġvideos": 4346,
      "Lucy": 4347,
      "Ġson": 4348,
      "ĠCal": 4349,
      "reek": 4350,
      "Ġreturns": 4351,
      "emon": 4352,
      "Ġ=>": 4353,
      "pre": 4354,
      "Ġvac": 4355,
      "Ġash": 4356,
      "oday": 4357,
      "ĠSometimes": 4358,
      "Ġgroups": 4359,
      "Ġreality": 4360,
      "Ġwealth": 4361,
      "Ġill": 4362,
      "Ġwis": 4363,
      "Ġpoly": 4364,
      "Ġrefers": 4365,
      "Ġalternative": 4366,
      "Ġfurry": 4367,
      "Ġpad": 4368,
      "Ġpile": 4369,
      "Ġrecipe": 4370,
      "Ġteeth": 4371,
      "Ġguess": 4372,
      "Ġapprox": 4373,
      "Ġnegative": 4374,
      "Ġscar": 4375,
      "Ġresponses": 4376,
      "Ġrise": 4377,
      "size": 4378,
      "Come": 4379,
      "Ġ</": 4380,
      "ĠTry": 4381,
      "Ġreasons": 4382,
      "quality": 4383,
      "ops": 4384,
      "Ġinterface": 4385,
      "Ġmotiv": 4386,
      "Ġtruth": 4387,
      "pass": 4388,
      "Ġevol": 4389,
      "ecraft": 4390,
      "ĠTheir": 4391,
      "Ġadvantage": 4392,
      "Ġmysterious": 4393,
      "iring": 4394,
      "Ġgreater": 4395,
      "ounc": 4396,
      "ĠGet": 4397,
      "ĠGood": 4398,
      "ustain": 4399,
      "Ġcollection": 4400,
      "Ġpand": 4401,
      "amm": 4402,
      "Ġdinosaur": 4403,
      "Ġmillion": 4404,
      "Add": 4405,
      "Ġspray": 4406,
      "Ġargument": 4407,
      "Ġbill": 4408,
      "Ġhonest": 4409,
      "Ġhero": 4410,
      "cur": 4411,
      "orage": 4412,
      "Ġded": 4413,
      "Ġsaying": 4414,
      "const": 4415,
      "oons": 4416,
      "itter": 4417,
      "Ġpool": 4418,
      "Ġ11": 4419,
      "Ġenter": 4420,
      "Ġrat": 4421,
      "Ġreliable": 4422,
      "Ġchain": 4423,
      "Ġcrayons": 4424,
      "Ġsauce": 4425,
      "ipment": 4426,
      "ression": 4427,
      "Ġplatforms": 4428,
      "Ġwhis": 4429,
      "ĠWould": 4430,
      "affe": 4431,
      "ucle": 4432,
      "Ġbattery": 4433,
      "While": 4434,
      "iven": 4435,
      "Ġreading": 4436,
      "Ġneur": 4437,
      "ĠWhich": 4438,
      "Ġbugs": 4439,
      "Ġbeyond": 4440,
      "Ġhealthcare": 4441,
      "Ġcooking": 4442,
      "Ġsequence": 4443,
      "pire": 4444,
      "Ġrough": 4445,
      "Ġjoke": 4446,
      "Ġstrategies": 4447,
      "kin": 4448,
      "Ġpepper": 4449,
      "Ġdelight": 4450,
      "Ġzoom": 4451,
      "inks": 4452,
      "Ġseat": 4453,
      "Ġsched": 4454,
      "Ġcore": 4455,
      "Ġang": 4456,
      "Ġsnowman": 4457,
      "Ġcart": 4458,
      "Ġadding": 4459,
      "Ġcreature": 4460,
      "Ġstanding": 4461,
      "Ġpreferences": 4462,
      "ometry": 4463,
      "Ġsupply": 4464,
      "Ġinj": 4465,
      "Ġcow": 4466,
      "Ġult": 4467,
      "Ġgather": 4468,
      "Ġactive": 4469,
      "Ġincorpor": 4470,
      "Ġtick": 4471,
      "Ġpsych": 4472,
      "Ġop": 4473,
      "ĠTwe": 4474,
      "ĠSw": 4475,
      "Ġshining": 4476,
      "Ġrope": 4477,
      "Ġforms": 4478,
      "Ġlights": 4479,
      "Ġcarrots": 4480,
      "berry": 4481,
      "Ġsnake": 4482,
      "Ġimplementation": 4483,
      "Ġtag": 4484,
      "ceed": 4485,
      "Ġthird": 4486,
      "oming": 4487,
      "Ġsuggestions": 4488,
      "Ġrequests": 4489,
      "Where": 4490,
      "Ġru": 4491,
      "utor": 4492,
      "Ġweap": 4493,
      "Ġknowing": 4494,
      "ĠNe": 4495,
      "Ġgraphics": 4496,
      "awn": 4497,
      "Ġfather": 4498,
      "org": 4499,
      "Ġparameters": 4500,
      "Ġprinciples": 4501,
      "Ġhowever": 4502,
      "Ġax": 4503,
      "ĠYouT": 4504,
      "inking": 4505,
      "Ġcod": 4506,
      "Ġscreamed": 4507,
      "Ã©": 4508,
      "Ġitem": 4509,
      "Ġspotted": 4510,
      "Ġfinal": 4511,
      "istance": 4512,
      "Ġchest": 4513,
      "Ġsword": 4514,
      "eorge": 4515,
      ".,": 4516,
      "ashed": 4517,
      "ĠEnd": 4518,
      "40": 4519,
      "friend": 4520,
      "itary": 4521,
      "Ġcaused": 4522,
      "Ġpeaceful": 4523,
      "Ġseparate": 4524,
      "Ġmeal": 4525,
      "Ġforgive": 4526,
      "SC": 4527,
      "apan": 4528,
      "Ġpractices": 4529,
      "Ġsplash": 4530,
      "II": 4531,
      "Ġfully": 4532,
      "aim": 4533,
      "ĠWill": 4534,
      "Ġperm": 4535,
      "Ġmechanics": 4536,
      "do": 4537,
      "Ġmel": 4538,
      "ĠPC": 4539,
      "Ġmicro": 4540,
      "Ġlovely": 4541,
      "Ġchem": 4542,
      "Ġconcerns": 4543,
      "Ġhur": 4544,
      "Ġwhenever": 4545,
      "ĠPeter": 4546,
      "Every": 4547,
      "Ġprote": 4548,
      "60": 4549,
      "Ġarchitecture": 4550,
      "Ġ15": 4551,
      "ym": 4552,
      "icles": 4553,
      "Ġ_": 4554,
      "Ġemphas": 4555,
      "Ġdrag": 4556,
      "Ġbelieved": 4557,
      "hent": 4558,
      "ĠDef": 4559,
      "pack": 4560,
      "Ġexecut": 4561,
      "irm": 4562,
      "Ġseems": 4563,
      "Ġcivil": 4564,
      "Ġdirection": 4565,
      "Ġprivacy": 4566,
      "Ġhorse": 4567,
      "Ġconsult": 4568,
      "ĠKing": 4569,
      "cont": 4570,
      "Ġwolf": 4571,
      "Ġhang": 4572,
      "âĶĢâĶĢâĶĢâĶĢ": 4573,
      "itty": 4574,
      "Ġmeat": 4575,
      "ĠMum": 4576,
      "fer": 4577,
      "ĠCont": 4578,
      "Ġgrowing": 4579,
      "Ġtreats": 4580,
      "Ġlose": 4581,
      "ĠNet": 4582,
      "Ġshy": 4583,
      "Ġexperiment": 4584,
      "Ġfeelings": 4585,
      "Ġremo": 4586,
      "Ġgrew": 4587,
      "Ġappre": 4588,
      "Ġrude": 4589,
      "Ġinstr": 4590,
      "Ġequal": 4591,
      "Ġlaws": 4592,
      "Ġcheer": 4593,
      "Ġsolutions": 4594,
      "Ġstuff": 4595,
      "Ġcollabor": 4596,
      ":**": 4597,
      "Ġvel": 4598,
      "Ġleaving": 4599,
      "though": 4600,
      "Ġdiscover": 4601,
      "Ġcounter": 4602,
      "roc": 4603,
      "Ġmanip": 4604,
      "encies": 4605,
      "Ġlack": 4606,
      "Ġjun": 4607,
      "Ġjumping": 4608,
      "âĸĵ": 4609,
      "Ġsustain": 4610,
      "Ġcab": 4611,
      "Ġdanced": 4612,
      "Ġmode": 4613,
      "ointed": 4614,
      "ĠMod": 4615,
      "ography": 4616,
      "Ġship": 4617,
      "Ġtele": 4618,
      "Ġequipment": 4619,
      "opt": 4620,
      "Ġethical": 4621,
      "14": 4622,
      "alk": 4623,
      "Ġharder": 4624,
      "ĠKeep": 4625,
      "Ġlocated": 4626,
      "asy": 4627,
      "ĠAcc": 4628,
      "Ġabilities": 4629,
      "Ġreturned": 4630,
      "80": 4631,
      "Ġexpert": 4632,
      "Ġpotentially": 4633,
      "Ġimmedi": 4634,
      "world": 4635,
      "Ġspirit": 4636,
      "Ġlock": 4637,
      "Ġjew": 4638,
      "ĊĠ": 4639,
      "Ġund": 4640,
      "ĠComm": 4641,
      "Ġfruits": 4642,
      "Name": 4643,
      "Ġchance": 4644,
      "Ġcomputers": 4645,
      "Ġframework": 4646,
      "Ġconsciousness": 4647,
      "rem": 4648,
      "ned": 4649,
      "Ġsmelled": 4650,
      "right": 4651,
      "Ġexisting": 4652,
      "Ġprivate": 4653,
      "Ġmistake": 4654,
      "LL": 4655,
      "Ġmit": 4656,
      "Ġmath": 4657,
      "Ġcoin": 4658,
      "Ġbell": 4659,
      "Ġchann": 4660,
      "ĠRoman": 4661,
      "Ġcomponent": 4662,
      "Ġchanged": 4663,
      "Ġassum": 4664,
      "Ġconversation": 4665,
      "Ġjog": 4666,
      "hered": 4667,
      "arrass": 4668,
      "Ġflexible": 4669,
      "wh": 4670,
      "Ġconvert": 4671,
      "ork": 4672,
      "Ġ->": 4673,
      "Ġactual": 4674,
      "Ġrocket": 4675,
      "Ġshelf": 4676,
      "Lila": 4677,
      "Ġyog": 4678,
      "Ġchanging": 4679,
      "Con": 4680,
      "hood": 4681,
      "Ġupdate": 4682,
      "Ġmissed": 4683,
      "fficient": 4684,
      "Ġappreci": 4685,
      "Ġliter": 4686,
      "Ġsubst": 4687,
      "Ġextract": 4688,
      "Ġpair": 4689,
      "ado": 4690,
      "Ġmembers": 4691,
      "Ġcarbon": 4692,
      "ocr": 4693,
      "apping": 4694,
      "ĠSm": 4695,
      "Ġrolled": 4696,
      "Ġembarrass": 4697,
      "Ġtheore": 4698,
      "Ġemerg": 4699,
      "Ġdeveloping": 4700,
      "Ġmer": 4701,
      "iation": 4702,
      "icked": 4703,
      "Ġstrategy": 4704,
      "ades": 4705,
      "Ġhappiness": 4706,
      "Ġstrings": 4707,
      "Ġmyself": 4708,
      "Ġconclusion": 4709,
      "Ġmachines": 4710,
      "Ġstatement": 4711,
      "ĠCertain": 4712,
      "Ġsuff": 4713,
      "Tommy": 4714,
      "Ġbudget": 4715,
      "isms": 4716,
      "Ġpir": 4717,
      "Ġrare": 4718,
      "Ġloyal": 4719,
      "Ġquery": 4720,
      "Ġ][": 4721,
      "Ġdistribut": 4722,
      "vered": 4723,
      "illa": 4724,
      "Ġclient": 4725,
      "Ġstarts": 4726,
      "Ġpicnic": 4727,
      "anches": 4728,
      "abel": 4729,
      "ĠGit": 4730,
      "Ġserve": 4731,
      "ĠMany": 4732,
      "fast": 4733,
      "ĠWhere": 4734,
      "Ġgun": 4735,
      "Ġelectron": 4736,
      "ĠPer": 4737,
      "Ġfrustr": 4738,
      "can": 4739,
      "rix": 4740,
      "order": 4741,
      "oot": 4742,
      "Ġsympt": 4743,
      "Ġstress": 4744,
      "Ġdriving": 4745,
      "Gr": 4746,
      "Ġolder": 4747,
      "Ġpurch": 4748,
      "ĠDevelop": 4749,
      "ĠJenny": 4750,
      "Ġcookie": 4751,
      "inct": 4752,
      "Ġincreased": 4753,
      "Ġhiding": 4754,
      "Ġstable": 4755,
      "Ġinstructions": 4756,
      "Ġguide": 4757,
      "Ġtesting": 4758,
      "Ġstage": 4759,
      "Ġtraff": 4760,
      "iliar": 4761,
      "Ġmeasures": 4762,
      "Ġtraffic": 4763,
      "div": 4764,
      "Ġexplanation": 4765,
      "ighter": 4766,
      "ĠBlue": 4767,
      "ighed": 4768,
      "Ġdrawing": 4769,
      "Ġcouch": 4770,
      "Ġrisks": 4771,
      "ĠDec": 4772,
      "ĠEach": 4773,
      "Ġpotat": 4774,
      "rypt": 4775,
      "Ġstrugg": 4776,
      "Ġvul": 4777,
      "Ġbur": 4778,
      "itory": 4779,
      "Ġtasted": 4780,
      "Ġdreams": 4781,
      "Ġmathematics": 4782,
      "Ġindependent": 4783,
      "Ġpropos": 4784,
      "ltimately": 4785,
      "Ġopin": 4786,
      "ĠYouTube": 4787,
      "Sp": 4788,
      "Ġaccording": 4789,
      "rm": 4790,
      "ĠFred": 4791,
      "Ġdeath": 4792,
      "EN": 4793,
      "Ġexpand": 4794,
      "Ġselfish": 4795,
      "Ġlinear": 4796,
      "Ġchess": 4797,
      "Ġscene": 4798,
      "Ġindex": 4799,
      "Ġchord": 4800,
      "Ġbranches": 4801,
      "struct": 4802,
      "ĠLook": 4803,
      "aul": 4804,
      "Ġmut": 4805,
      "ĠSim": 4806,
      "Ġrelig": 4807,
      "Ġchallenge": 4808,
      "Ġexistence": 4809,
      "Ġopportunities": 4810,
      "Remember": 4811,
      "25": 4812,
      "âķ": 4813,
      "Ġgray": 4814,
      "Ġreducing": 4815,
      "Ġdemonstr": 4816,
      "Fr": 4817,
      "rial": 4818,
      "Ġnews": 4819,
      "Ġreference": 4820,
      "Ġbrand": 4821,
      "Ġnucle": 4822,
      "Ġcabin": 4823,
      "level": 4824,
      "verse": 4825,
      "Ġnic": 4826,
      "Ġpassword": 4827,
      "Ġeducation": 4828,
      "ervous": 4829,
      "year": 4830,
      "Ġbridge": 4831,
      "Ġdaily": 4832,
      "ctors": 4833,
      "ĠData": 4834,
      "Ġdesk": 4835,
      "ĠExplain": 4836,
      "Mum": 4837,
      "oph": 4838,
      "Ġscal": 4839,
      "Ġletters": 4840,
      "ðŁ": 4841,
      "Ġrestaur": 4842,
      "Ġsatis": 4843,
      "Ġnervous": 4844,
      "Ġsty": 4845,
      "ĠMe": 4846,
      "ounds": 4847,
      "Ġwash": 4848,
      "ĠWeb": 4849,
      "Ġcomplet": 4850,
      "RL": 4851,
      "uations": 4852,
      "ĠRep": 4853,
      "Ġneckl": 4854,
      "Ġspider": 4855,
      "Ġpainting": 4856,
      "plications": 4857,
      "['": 4858,
      "Ġfuel": 4859,
      "ĠJake": 4860,
      "Ġmixed": 4861,
      "llie": 4862,
      "Ġ--": 4863,
      "Ġhumanity": 4864,
      "Ġmessages": 4865,
      "Ġdestro": 4866,
      "atory": 4867,
      "umber": 4868,
      "que": 4869,
      "eline": 4870,
      "Cl": 4871,
      "De": 4872,
      "Ġ%": 4873,
      "Ġsour": 4874,
      "Ġsuitable": 4875,
      "uly": 4876,
      "Ġmirror": 4877,
      "ding": 4878,
      "Ġpip": 4879,
      "Ġstorage": 4880,
      "Ġexcit": 4881,
      "ĠGreat": 4882,
      "Ġclaim": 4883,
      "ys": 4884,
      "Ġwrote": 4885,
      "ĠJohnny": 4886,
      "ĠMicrosoft": 4887,
      "Ġflat": 4888,
      "Ġsnacks": 4889,
      "Ġhistorical": 4890,
      "Ġiter": 4891,
      "ĠJapan": 4892,
      "ensor": 4893,
      "Ġpolite": 4894,
      "Ġvolume": 4895,
      "Ġinfin": 4896,
      "Ġorganized": 4897,
      "Ġtransport": 4898,
      "Ġaccuracy": 4899,
      "Ġtrade": 4900,
      "Ġexactly": 4901,
      "Ġshirt": 4902,
      "ĠEuropean": 4903,
      "wise": 4904,
      "Ġcrypt": 4905,
      "Ġsides": 4906,
      "Ġhous": 4907,
      "ĠGener": 4908,
      "Ġinstance": 4909,
      "inated": 4910,
      "ĠCo": 4911,
      "Ġpuzzle": 4912,
      "ĠOver": 4913,
      "Ġnumer": 4914,
      "Ġtape": 4915,
      "Ġok": 4916,
      "ĠMon": 4917,
      "Ġauthent": 4918,
      "ĠFrench": 4919,
      "Ġsell": 4920,
      "Ġwee": 4921,
      "Once": 4922,
      "ĠFirst": 4923,
      "Ġbelow": 4924,
      "Ġinterests": 4925,
      "IT": 4926,
      "Their": 4927,
      "Ġrefer": 4928,
      "Sarah": 4929,
      "ĠConsider": 4930,
      "atives": 4931,
      "ola": 4932,
      "Ġ25": 4933,
      "Ġmaster": 4934,
      "Ġmedicine": 4935,
      "Ġincredible": 4936,
      "Ġrelease": 4937,
      "Ġcolour": 4938,
      "Ġtid": 4939,
      "Ġargue": 4940,
      "Ġcustomer": 4941,
      "Ġnotice": 4942,
      "Ġsymptoms": 4943,
      "AD": 4944,
      "Dad": 4945,
      "Ġknee": 4946,
      "Ġpretended": 4947,
      "ĠCertainly": 4948,
      "Ġblow": 4949,
      "Ġwalls": 4950,
      "Ġsack": 4951,
      "Ġfactor": 4952,
      "ĠProv": 4953,
      "Ġescape": 4954,
      "Le": 4955,
      "ĠVal": 4956,
      "Ġladder": 4957,
      "Ġregularly": 4958,
      "ls": 4959,
      "ĠInstead": 4960,
      "Ġlanded": 4961,
      "Ġgeneration": 4962,
      "ĠTake": 4963,
      "Ġstack": 4964,
      "Ġisland": 4965,
      "Ġknife": 4966,
      "Ġ2023": 4967,
      "Ġcalling": 4968,
      "Ġconfiguration": 4969,
      "Ġexh": 4970,
      "gn": 4971,
      "stand": 4972,
      "Ġrhy": 4973,
      "Ġleaf": 4974,
      "Me": 4975,
      "Ġluck": 4976,
      "Ġexcitement": 4977,
      "ĠSQL": 4978,
      "resents": 4979,
      "Ġmilitary": 4980,
      "Ġvulner": 4981,
      "Ġterr": 4982,
      "urch": 4983,
      "umpy": 4984,
      "Ġbedroom": 4985,
      "Ġelectr": 4986,
      "Ġjungle": 4987,
      "},": 4988,
      "Ġsaved": 4989,
      "dir": 4990,
      "Ġstood": 4991,
      "Ġwore": 4992,
      "apter": 4993,
      "iam": 4994,
      "Ġborrow": 4995,
      "Ġchased": 4996,
      "Ġcontroll": 4997,
      "Ġreceive": 4998,
      "Ġpal": 4999,
      "button": 5000,
      "ĠAb": 5001,
      "Ġprefer": 5002,
      "Ġiron": 5003,
      "Soon": 5004,
      "Ġgigg": 5005,
      "illing": 5006,
      "ration": 5007,
      "ĠAv": 5008,
      "ĠGPU": 5009,
      "Ġgate": 5010,
      "Ġembarrassed": 5011,
      "US": 5012,
      "Ġhosp": 5013,
      "object": 5014,
      "100": 5015,
      "Ġfake": 5016,
      "Ġattacks": 5017,
      "Ġphr": 5018,
      "....": 5019,
      "Ġveh": 5020,
      "Ġphilosophy": 5021,
      "Ġhappening": 5022,
      "Ġswitch": 5023,
      "Ġapologize": 5024,
      "earch": 5025,
      "Ġmentioned": 5026,
      "itted": 5027,
      "Ġlargest": 5028,
      "99": 5029,
      "Is": 5030,
      "Ġcapable": 5031,
      "Ġsuggested": 5032,
      "Ġoppos": 5033,
      "Ġpuddle": 5034,
      "Ġcovered": 5035,
      "ED": 5036,
      "urs": 5037,
      "encil": 5038,
      "input": 5039,
      "Ġcarrot": 5040,
      "lement": 5041,
      "Ġparticles": 5042,
      "Ġmanaged": 5043,
      "Ġcarried": 5044,
      "Ġlabel": 5045,
      "type": 5046,
      "Ġtheories": 5047,
      "ĠList": 5048,
      "Ġnotes": 5049,
      "iped": 5050,
      "Ġadvance": 5051,
      "Ġbanana": 5052,
      "mosp": 5053,
      "essage": 5054,
      "Ġtriangle": 5055,
      "ĠChrist": 5056,
      "eries": 5057,
      "Ġthanks": 5058,
      "Ġtechnical": 5059,
      "Ġbarked": 5060,
      "Ġclock": 5061,
      "Ġfilter": 5062,
      "Ġaspects": 5063,
      "Ġrule": 5064,
      "Ġ+=": 5065,
      "::::": 5066,
      "Ġbored": 5067,
      "Ġsoil": 5068,
      "Ġsport": 5069,
      "avour": 5070,
      "Ġlemon": 5071,
      "cast": 5072,
      "Ġtutor": 5073,
      "ĠLisa": 5074,
      "Ġmissing": 5075,
      "Ġstronger": 5076,
      "Ġrepresents": 5077,
      "Ġpolicy": 5078,
      "Ġmagnet": 5079,
      "Ġexercises": 5080,
      "gal": 5081,
      "Ġsticks": 5082,
      "ecause": 5083,
      "Ġorganization": 5084,
      "ĠFl": 5085,
      "Ġdetail": 5086,
      "Pr": 5087,
      "Ġconnected": 5088,
      "hical": 5089,
      "Ġsheep": 5090,
      "Ġpap": 5091,
      "Ġfolder": 5092,
      "ĠAlso": 5093,
      "rain": 5094,
      "Ġpolice": 5095,
      "athered": 5096,
      "Ġatmosp": 5097,
      "Ġroutine": 5098,
      "Ġsus": 5099,
      "inder": 5100,
      "ĠAnn": 5101,
      "Ġtur": 5102,
      "Ġ17": 5103,
      "Ġraise": 5104,
      "Ġstock": 5105,
      "urtle": 5106,
      "Ġrestr": 5107,
      "Ġcapac": 5108,
      "ructure": 5109,
      "nel": 5110,
      "**:": 5111,
      "Ġpowers": 5112,
      "`.": 5113,
      "nds": 5114,
      "Ġspecifically": 5115,
      "Ġeffectively": 5116,
      "Ġknocked": 5117,
      "Are": 5118,
      "df": 5119,
      "Ġtaught": 5120,
      "Ġcompare": 5121,
      "Ġdisappointed": 5122,
      "Ġconsistent": 5123,
      "ĠFin": 5124,
      "Ġanswers": 5125,
      "Or": 5126,
      "inate": 5127,
      "ĠSystem": 5128,
      "Ġbat": 5129,
      "Ġfac": 5130,
      "Ġpencil": 5131,
      "Ġkeys": 5132,
      "ĠTogether": 5133,
      "Ġnode": 5134,
      "Ġworm": 5135,
      "Ġcommit": 5136,
      "Ġmedium": 5137,
      "Ġobtain": 5138,
      "Ġengineering": 5139,
      "Im": 5140,
      "Ġlit": 5141,
      "Jim": 5142,
      "Ġgenerated": 5143,
      "osy": 5144,
      "Ġmental": 5145,
      "Ġperspective": 5146,
      "PS": 5147,
      "??": 5148,
      "Ġpopulation": 5149,
      "Ġcosts": 5150,
      "Ġerrors": 5151,
      "Ġplanning": 5152,
      "Ġfeathers": 5153,
      "overy": 5154,
      "Ġsight": 5155,
      "estern": 5156,
      "ĠMittens": 5157,
      "iving": 5158,
      "Ġslight": 5159,
      "Ġashamed": 5160,
      "Ġreleased": 5161,
      "top": 5162,
      "zer": 5163,
      "Ġthoughts": 5164,
      "Ġcapabilities": 5165,
      "Ġcapital": 5166,
      "Ġblew": 5167,
      "].": 5168,
      "uous": 5169,
      "zing": 5170,
      "Ġunknown": 5171,
      "Ġpersist": 5172,
      "Ġremains": 5173,
      "hest": 5174,
      "Ġrecent": 5175,
      "Ġir": 5176,
      "Ġseason": 5177,
      "Ġnecklace": 5178,
      "`,": 5179,
      "Ġresulting": 5180,
      "bl": 5181,
      "keep": 5182,
      "Int": 5183,
      "Ġcontact": 5184,
      "ĠGeorge": 5185,
      "vas": 5186,
      "Ġalign": 5187,
      "Ġsearching": 5188,
      ".)": 5189,
      "Ġmoves": 5190,
      "Ġappl": 5191,
      "Ġreceived": 5192,
      "Ġmeadow": 5193,
      "Ġterminal": 5194,
      "part": 5195,
      "run": 5196,
      "Ġfail": 5197,
      "Ġshowing": 5198,
      "Ġflight": 5199,
      "Ġdiamond": 5200,
      "ensive": 5201,
      "issors": 5202,
      "Ġcontinues": 5203,
      "Ġamounts": 5204,
      "Ġcards": 5205,
      "Ġtables": 5206,
      "Ġtwist": 5207,
      "Ġcontainer": 5208,
      "ene": 5209,
      "Ġanx": 5210,
      "Ġbeauty": 5211,
      "Ġcater": 5212,
      "Ġdepth": 5213,
      "Ġcolle": 5214,
      "class": 5215,
      "rest": 5216,
      "ros": 5217,
      "Ġregulations": 5218,
      "Ġradio": 5219,
      "Ġexpected": 5220,
      "mod": 5221,
      "sol": 5222,
      "Ġahead": 5223,
      "Ġtightly": 5224,
      "Ġanswered": 5225,
      "Ġfold": 5226,
      "Molly": 5227,
      "Ġcleaning": 5228,
      "Ġter": 5229,
      "Ġvast": 5230,
      "pic": 5231,
      "rency": 5232,
      "Ġconsole": 5233,
      "Ġunit": 5234,
      "Ġfrag": 5235,
      "Ġadvantages": 5236,
      "Ġtidy": 5237,
      "Ġknows": 5238,
      "ĠAlice": 5239,
      "Ġwra": 5240,
      "urance": 5241,
      "Ġpromote": 5242,
      "Ġgravity": 5243,
      "Ġtend": 5244,
      "Ġprop": 5245,
      "Ġfloat": 5246,
      "oin": 5247,
      "Ġprince": 5248,
      "Ġballs": 5249,
      "orch": 5250,
      "Em": 5251,
      "Ġgathered": 5252,
      "Ġjud": 5253,
      "emic": 5254,
      "aked": 5255,
      "Ġhears": 5256,
      "ĠAut": 5257,
      "alle": 5258,
      "Ġbrush": 5259,
      "uries": 5260,
      "Ġspicy": 5261,
      "Ġcapture": 5262,
      "OR": 5263,
      "Ġmac": 5264,
      "irect": 5265,
      "ĠBrown": 5266,
      "Ġhospital": 5267,
      "NA": 5268,
      "Ġwire": 5269,
      "Ġpun": 5270,
      "icing": 5271,
      "ĠLittle": 5272,
      "ae": 5273,
      "Ġorganizations": 5274,
      "Ġcooked": 5275,
      "Ġrepe": 5276,
      "ternal": 5277,
      "Ar": 5278,
      "comm": 5279,
      "Ġden": 5280,
      "Ġyelled": 5281,
      "Ġwheel": 5282,
      "Ġcrack": 5283,
      "Ġregion": 5284,
      "Ġemotions": 5285,
      "âĸĳ": 5286,
      "Ġrepair": 5287,
      "Ġreply": 5288,
      "Ġextension": 5289,
      "Ġvector": 5290,
      "21": 5291,
      "vest": 5292,
      "inked": 5293,
      "Ġmeeting": 5294,
      "under": 5295,
      "Ġsighed": 5296,
      "Ġcrab": 5297,
      "Ġfundam": 5298,
      "Ġqueen": 5299,
      "android": 5300,
      "90": 5301,
      "ams": 5302,
      "plate": 5303,
      "Ġdescription": 5304,
      "iest": 5305,
      "Ġwebsites": 5306,
      "Ġopening": 5307,
      "Ġfrustrated": 5308,
      "min": 5309,
      "etic": 5310,
      "Ġscissors": 5311,
      "Ġdouble": 5312,
      "rief": 5313,
      "Ġpolic": 5314,
      "Ġfalls": 5315,
      "Ġcredit": 5316,
      "agraph": 5317,
      "ĠEverywhere": 5318,
      "ĠReg": 5319,
      "Ġmi": 5320,
      "Ġbeg": 5321,
      "Who": 5322,
      "Ġsite": 5323,
      "aser": 5324,
      "Ġham": 5325,
      "Ġshad": 5326,
      "Ġsmoke": 5327,
      "Some": 5328,
      "craft": 5329,
      "Ġfancy": 5330,
      "ĠMinecraft": 5331,
      "Ġlying": 5332,
      "45": 5333,
      "Ġox": 5334,
      "Ġisn": 5335,
      "Ġyours": 5336,
      "Ġclick": 5337,
      "ĠTrans": 5338,
      "fish": 5339,
      "Ġdol": 5340,
      "Ġscream": 5341,
      "Ġsandwich": 5342,
      "Ġshore": 5343,
      "Ġoffered": 5344,
      "Ġglue": 5345,
      "Ġbrowser": 5346,
      "Ġcate": 5347,
      "Ġpub": 5348,
      "rad": 5349,
      "war": 5350,
      "Ġpolit": 5351,
      "Ġaccepted": 5352,
      "Ġplug": 5353,
      "ĠMag": 5354,
      "ĠAlex": 5355,
      "Ġstraw": 5356,
      "rror": 5357,
      "etch": 5358,
      "Ġimproving": 5359,
      "lay": 5360,
      "atically": 5361,
      "Ġcontribute": 5362,
      "Ġstudent": 5363,
      "70": 5364,
      "Ġfalse": 5365,
      "Ġphen": 5366,
      "Ġdefined": 5367,
      "SD": 5368,
      "ĠOK": 5369,
      "issions": 5370,
      "Ġinstalled": 5371,
      "Ġcauses": 5372,
      "Ġreve": 5373,
      "ĠGre": 5374,
      "Ġflash": 5375,
      "Ġunus": 5376,
      "tons": 5377,
      "ĠSus": 5378,
      "Ġplot": 5379,
      "Ġdisease": 5380,
      "Ġdestroy": 5381,
      "Ġbroad": 5382,
      "anish": 5383,
      "ushed": 5384,
      "Ġcentral": 5385,
      "Ġbecomes": 5386,
      "Ġzero": 5387,
      "Ġimproved": 5388,
      "oub": 5389,
      "erce": 5390,
      "Ġtoug": 5391,
      "Ġpacked": 5392,
      "plane": 5393,
      "dis": 5394,
      "ĠOf": 5395,
      "Ġimagine": 5396,
      "Ġvase": 5397,
      "Ġfocused": 5398,
      "Ġlabor": 5399,
      "itiz": 5400,
      "ership": 5401,
      "Ġkinds": 5402,
      "Ġcausing": 5403,
      "cles": 5404,
      "Ġholds": 5405,
      "String": 5406,
      "Ġcorrectly": 5407,
      "Ġphilosophical": 5408,
      "Ġclown": 5409,
      "Ġenh": 5410,
      "ĠGreek": 5411,
      "Ġflu": 5412,
      "Ġcustomers": 5413,
      "umbled": 5414,
      "Mama": 5415,
      "Ġevil": 5416,
      "Ġrelatively": 5417,
      "Ġfishing": 5418,
      "Ġstones": 5419,
      "otes": 5420,
      "yrics": 5421,
      "pill": 5422,
      "Ġdrew": 5423,
      "Ġarguments": 5424,
      "Ġpaid": 5425,
      "Ġresource": 5426,
      "Ġten": 5427,
      "Ġhar": 5428,
      "imp": 5429,
      "ĠGu": 5430,
      "string": 5431,
      "Ġdeeper": 5432,
      "Ġpasta": 5433,
      "gers": 5434,
      "Ġwing": 5435,
      "Ġvoc": 5436,
      "Ġlandsc": 5437,
      "En": 5438,
      "Ġretrie": 5439,
      "sm": 5440,
      "Ġbark": 5441,
      "chain": 5442,
      "Ġspaces": 5443,
      "Ġcryst": 5444,
      "Ġenvironmental": 5445,
      "Jane": 5446,
      "step": 5447,
      "ĠPre": 5448,
      "Ġtent": 5449,
      "erve": 5450,
      "omb": 5451,
      "Ġrights": 5452,
      "Ġclasses": 5453,
      "Ġspr": 5454,
      "Ġcompre": 5455,
      "Ġeconomy": 5456,
      "Ġtie": 5457,
      "Ġmessy": 5458,
      "train": 5459,
      "Ġmovies": 5460,
      "Ġpoem": 5461,
      "Ġgenerous": 5462,
      "Ġsalad": 5463,
      "Ġmelt": 5464,
      "Ġsafely": 5465,
      "Ġbathroom": 5466,
      "Ġmuscle": 5467,
      "ĠAccording": 5468,
      "Ġsentence": 5469,
      "Ġdancing": 5470,
      "Ġgod": 5471,
      "ĠBuild": 5472,
      "ĠMat": 5473,
      "Ġboring": 5474,
      "odies": 5475,
      "Ġpicks": 5476,
      "Ġmush": 5477,
      "idth": 5478,
      "Ġalert": 5479,
      "ĠPet": 5480,
      "?\".": 5481,
      "Ġtears": 5482,
      "Ġmushroom": 5483,
      "Ġsleepy": 5484,
      "inst": 5485,
      "alax": 5486,
      "Ġqual": 5487,
      "Ġcoins": 5488,
      "Ġspeech": 5489,
      "Ġtechnique": 5490,
      "Ġdefinition": 5491,
      "Ġcaterpill": 5492,
      "Ġexpression": 5493,
      "Ġflavor": 5494,
      "Ġsplit": 5495,
      "Ġrestrict": 5496,
      "Ġkissed": 5497,
      "Ġestablish": 5498,
      "elines": 5499,
      "Ġending": 5500,
      "Ġbattle": 5501,
      "ĠSun": 5502,
      "mm": 5503,
      "Ġplaced": 5504,
      "Ġjelly": 5505,
      "Another": 5506,
      "ĠOther": 5507,
      "Ġbake": 5508,
      "izzy": 5509,
      "Ġcurve": 5510,
      "ĠTherefore": 5511,
      "Ġsparkly": 5512,
      "Ġschedule": 5513,
      "Ġangle": 5514,
      "ĠPy": 5515,
      "Ġkindness": 5516,
      "Ġtransfer": 5517,
      "Ġwarn": 5518,
      "onent": 5519,
      "Ġmal": 5520,
      "Ġ13": 5521,
      "Ġ14": 5522,
      "Ġcrown": 5523,
      "Ġsettings": 5524,
      "Ġprotein": 5525,
      "Ġcats": 5526,
      "Ġcommunities": 5527,
      "Ġpray": 5528,
      "Ġtough": 5529,
      "csv": 5530,
      "Ġstra": 5531,
      "Ġdishes": 5532,
      "Ġinvestment": 5533,
      "Ġlatest": 5534,
      "Ġjewel": 5535,
      "Ġcompat": 5536,
      "gebra": 5537,
      "Ġnods": 5538,
      "po": 5539,
      "ounce": 5540,
      "Ġcompass": 5541,
      "Ġindic": 5542,
      "Ġcompletely": 5543,
      "Ġbaking": 5544,
      "Ġestablished": 5545,
      "Sorry": 5546,
      "ventually": 5547,
      "ouncil": 5548,
      "']": 5549,
      "Ġblo": 5550,
      "ĠVis": 5551,
      "Ġcries": 5552,
      "Ġcage": 5553,
      "Ġdefault": 5554,
      "Ġimmediately": 5555,
      "Stop": 5556,
      "Ġfingers": 5557,
      "Ġwake": 5558,
      "ĠSince": 5559,
      "ibilities": 5560,
      "====": 5561,
      "keeper": 5562,
      "View": 5563,
      "Ġcos": 5564,
      "Ġexcept": 5565,
      "Ġestimate": 5566,
      "Ġprimary": 5567,
      "hus": 5568,
      "Ġlyrics": 5569,
      "fortun": 5570,
      "Ġwalks": 5571,
      "Ġlayers": 5572,
      "Ġstraight": 5573,
      "Ġmic": 5574,
      "Ġwhistle": 5575,
      "pm": 5576,
      "Ġment": 5577,
      "Ġknight": 5578,
      "stract": 5579,
      "Ġtelling": 5580,
      "Ġaccom": 5581,
      "Ġpriorit": 5582,
      "Ġchemical": 5583,
      "Ġcaterpillar": 5584,
      "Ġcraft": 5585,
      "Ġlean": 5586,
      "Ġos": 5587,
      "Ġkil": 5588,
      "Ġintelligent": 5589,
      "main": 5590,
      "house": 5591,
      "urous": 5592,
      "Ġkeeping": 5593,
      "Ġcommands": 5594,
      "Ġscarf": 5595,
      "ĠTeddy": 5596,
      "Ġanalyze": 5597,
      "Ġphenomen": 5598,
      "change": 5599,
      "ĠRo": 5600,
      "ucial": 5601,
      "Ġwindows": 5602,
      "Ġwinter": 5603,
      "Ġlink": 5604,
      "aze": 5605,
      "Ġsupports": 5606,
      "rastructure": 5607,
      "ĠDefine": 5608,
      "gly": 5609,
      "Ġpros": 5610,
      "ĠSpanish": 5611,
      "friendly": 5612,
      "Ġmotor": 5613,
      "Ġsituations": 5614,
      "Ġhyp": 5615,
      "ĠToday": 5616,
      "ession": 5617,
      "Ġmob": 5618,
      "Ġcrucial": 5619,
      "Ġsample": 5620,
      "asses": 5621,
      "Ġrose": 5622,
      "Ġfavour": 5623,
      "Ġcritical": 5624,
      "Ġdra": 5625,
      "Ġsheet": 5626,
      "Ġboot": 5627,
      "Ġkingdom": 5628,
      "Ġpie": 5629,
      "Ġfinds": 5630,
      "Ġhorn": 5631,
      "Ġdev": 5632,
      "Ġprepare": 5633,
      "Ġhappens": 5634,
      "Ġcoord": 5635,
      "Ġlogic": 5636,
      "ĠGermany": 5637,
      "77": 5638,
      "Ġwidth": 5639,
      "Ġconstruct": 5640,
      "Ġber": 5641,
      "ĠOut": 5642,
      "Ġmodule": 5643,
      "ĠIntern": 5644,
      "Ġexplored": 5645,
      "ĠCSS": 5646,
      "Ġadventurous": 5647,
      "Ġpleased": 5648,
      "PE": 5649,
      "Ġtruly": 5650,
      "Ġoperation": 5651,
      "berries": 5652,
      "Ġstored": 5653,
      "Ġupdated": 5654,
      "Ġunusual": 5655,
      "Ġdust": 5656,
      "ĠJames": 5657,
      "Ġ80": 5658,
      "Ġthankful": 5659,
      "husi": 5660,
      "off": 5661,
      "uces": 5662,
      "Ġbreaks": 5663,
      "poses": 5664,
      "CT": 5665,
      "Ġcleaned": 5666,
      "Ġenthusi": 5667,
      "Ġdisappeared": 5668,
      "Ġgrown": 5669,
      "appy": 5670,
      "eral": 5671,
      "Ġelder": 5672,
      "ĠRuss": 5673,
      "ĠUsing": 5674,
      "ĠOpenAI": 5675,
      "JJ": 5676,
      "Ġtwirl": 5677,
      "ĠAct": 5678,
      "Ġlapt": 5679,
      "ĠÐ": 5680,
      "ĠUp": 5681,
      "Ġhopping": 5682,
      "ĠStud": 5683,
      "Ġwheels": 5684,
      "Ġaccompl": 5685,
      "amples": 5686,
      "Ġchew": 5687,
      "fortunately": 5688,
      "Well": 5689,
      "bar": 5690,
      "Ġseg": 5691,
      "udd": 5692,
      "Ġstudies": 5693,
      "Ġapproximately": 5694,
      "Sh": 5695,
      "Ġcloset": 5696,
      "Ġdiag": 5697,
      "ĠComp": 5698,
      "Ġkitten": 5699,
      "Ġdeer": 5700,
      "Ġconduct": 5701,
      "Ġcommunicate": 5702,
      "Ġjobs": 5703,
      "Ġrecommendations": 5704,
      "Ġmaximum": 5705,
      "Ġpipe": 5706,
      "Ġweird": 5707,
      "Ġugly": 5708,
      "Ġaccessible": 5709,
      "Ġstretch": 5710,
      "Ġusage": 5711,
      "Ġslightly": 5712,
      "Use": 5713,
      "oured": 5714,
      "xture": 5715,
      "notation": 5716,
      "Ġfalling": 5717,
      "Ġcompetitive": 5718,
      "respond": 5719,
      "da": 5720,
      "Ġbank": 5721,
      "Ġbuttons": 5722,
      "Ġinfluenced": 5723,
      "Ġwaste": 5724,
      "Data": 5725,
      "event": 5726,
      "rough": 5727,
      "onic": 5728,
      "connect": 5729,
      "Ġfreed": 5730,
      "Ġcultures": 5731,
      "Ġsoap": 5732,
      "AS": 5733,
      "ĠGPT": 5734,
      "Ġfool": 5735,
      "Ġboxes": 5736,
      "uffy": 5737,
      "bre": 5738,
      "uary": 5739,
      "ET": 5740,
      "Ġfant": 5741,
      "Ġfasc": 5742,
      "rs": 5743,
      "Ġfro": 5744,
      "idity": 5745,
      "Ġacad": 5746,
      "Ġnuts": 5747,
      "ials": 5748,
      "Ġgiggled": 5749,
      "ĠDan": 5750,
      "Ġgrace": 5751,
      "Ġunc": 5752,
      "Ġlistening": 5753,
      "Ġberries": 5754,
      "imed": 5755,
      "Ġfoods": 5756,
      "ĠEmpire": 5757,
      "Ġbreakfast": 5758,
      "Ġtrick": 5759,
      "Ġstyles": 5760,
      "Ġbone": 5761,
      "enty": 5762,
      "Ġplastic": 5763,
      "ĠCent": 5764,
      "Ġclassic": 5765,
      "mit": 5766,
      "Ġshown": 5767,
      "ograph": 5768,
      "ifications": 5769,
      "Ġinsect": 5770,
      "Ġexperienced": 5771,
      "Ġsizes": 5772,
      "Ġunderlying": 5773,
      "Ġtour": 5774,
      "oby": 5775,
      "Ġbias": 5776,
      "Ġprompts": 5777,
      "ĠNot": 5778,
      "Ġcompetition": 5779,
      "Ġneurons": 5780,
      "Ġvert": 5781,
      "Ġtunnel": 5782,
      "Ġgarage": 5783,
      "iers": 5784,
      "ĠHigh": 5785,
      "Ġadult": 5786,
      "Ġutil": 5787,
      "First": 5788,
      "pow": 5789,
      "Ġcone": 5790,
      "Ġarrow": 5791,
      "Ġcareer": 5792,
      "Ġinfrastructure": 5793,
      "Ġelderly": 5794,
      "Ġrice": 5795,
      "Ġcircles": 5796,
      "Ġatmosphere": 5797,
      "Ġghost": 5798,
      "iday": 5799,
      "Ġengaging": 5800,
      "Ġweights": 5801,
      "Ġpolicies": 5802,
      "Ġcomprehen": 5803,
      "Des": 5804,
      "ufact": 5805,
      "Ġcere": 5806,
      "Ġmatches": 5807,
      "ossible": 5808,
      "Ġamb": 5809,
      "grad": 5810,
      "ibly": 5811,
      "Ġparad": 5812,
      "ulating": 5813,
      "Ġcrit": 5814,
      "bell": 5815,
      "Ġalgebra": 5816,
      "ĠFe": 5817,
      "Ġrestaurant": 5818,
      "Ġoutline": 5819,
      "ipping": 5820,
      "Ġturtle": 5821,
      "Ġbound": 5822,
      "Ġofficial": 5823,
      "Ġhyd": 5824,
      "Ġcub": 5825,
      "Ġcapacity": 5826,
      "Ġclay": 5827,
      "SV": 5828,
      "rit": 5829,
      "ada": 5830,
      "Ġthemes": 5831,
      "ĠDiff": 5832,
      "Ġfunctional": 5833,
      "Ġcups": 5834,
      "zed": 5835,
      "Ġseeds": 5836,
      "Ġnavigate": 5837,
      "Ġdeliver": 5838,
      "yright": 5839,
      "Ġprobably": 5840,
      "life": 5841,
      "Ġsyntax": 5842,
      ")^": 5843,
      "Error": 5844,
      "Ġcorn": 5845,
      "write": 5846,
      "Ġsummer": 5847,
      "nal": 5848,
      "Ġonion": 5849,
      "Ġmenu": 5850,
      "allel": 5851,
      "85": 5852,
      "ĠPol": 5853,
      "Ġclar": 5854,
      "Ġlazy": 5855,
      "Ġplayful": 5856,
      "Ġpicking": 5857,
      "Ġears": 5858,
      "Ġ40": 5859,
      "Ġbehavi": 5860,
      "Ġharmful": 5861,
      "Ġmotion": 5862,
      "Ġlimitations": 5863,
      "px": 5864,
      "Ġdiction": 5865,
      "Ġspecify": 5866,
      "weight": 5867,
      "scale": 5868,
      "Ġrepresentation": 5869,
      "aven": 5870,
      "Ġpresence": 5871,
      "Ġcontributions": 5872,
      "65": 5873,
      "kend": 5874,
      "Ġpurposes": 5875,
      "Ġrecognize": 5876,
      "Ġtherm": 5877,
      "uts": 5878,
      "uggle": 5879,
      "Ġmyth": 5880,
      "osh": 5881,
      "ups": 5882,
      "AL": 5883,
      "ĠBoth": 5884,
      "Ġskill": 5885,
      "Go": 5886,
      "Ġ50": 5887,
      "Ġradius": 5888,
      "bits": 5889,
      "Ġfamiliar": 5890,
      "Ġbeef": 5891,
      "ulated": 5892,
      "Ġvision": 5893,
      "Ġpump": 5894,
      "Ġvia": 5895,
      "Ġprime": 5896,
      "Ġideal": 5897,
      "ĠBritish": 5898,
      "arge": 5899,
      "ecurity": 5900,
      "Ġsigns": 5901,
      "Ġsleeping": 5902,
      "Ġbald": 5903,
      "Ġstatus": 5904,
      "ok": 5905,
      "orous": 5906,
      "Ġcorrespond": 5907,
      "iture": 5908,
      "Ġsignal": 5909,
      "Ġmixture": 5910,
      "Ġdeal": 5911,
      "Ġimpressive": 5912,
      "Ġtowel": 5913,
      "cos": 5914,
      "inforce": 5915,
      "Ġconv": 5916,
      "ief": 5917,
      "Ã¼": 5918,
      "plot": 5919,
      "Ġmember": 5920,
      "Joe": 5921,
      "Ġterri": 5922,
      "dri": 5923,
      "Ġrepos": 5924,
      "oe": 5925,
      "Ġresol": 5926,
      "Ġcher": 5927,
      "Ġabstract": 5928,
      "Ġfunctionality": 5929,
      "Ġclassical": 5930,
      "Ġscrew": 5931,
      "Ġprobability": 5932,
      "ygen": 5933,
      "Ġgaming": 5934,
      "Ġfavourite": 5935,
      "lier": 5936,
      "Ġgrumpy": 5937,
      "ĠCar": 5938,
      "Ġexpos": 5939,
      "gree": 5940,
      "0000": 5941,
      "Ġstd": 5942,
      "vere": 5943,
      "Ġunits": 5944,
      "Ġpil": 5945,
      "Ġbiggest": 5946,
      "arsh": 5947,
      "enny": 5948,
      "ĠRex": 5949,
      "Ġteasp": 5950,
      "Ġfluffy": 5951,
      "Ġbiases": 5952,
      "ua": 5953,
      "Ġcable": 5954,
      "Ġsuc": 5955,
      "Ġprotection": 5956,
      "Ġresearc": 5957,
      "\");": 5958,
      "!!": 5959,
      "ests": 5960,
      "Ġsweetie": 5961,
      "Ġmistakes": 5962,
      "Ġfridge": 5963,
      "Ġestim": 5964,
      "Ġbicy": 5965,
      "idents": 5966,
      "Ġreduced": 5967,
      "Ġengage": 5968,
      "Ġachieved": 5969,
      "Ġscratch": 5970,
      "Ġpillow": 5971,
      "Ġappreciate": 5972,
      "RI": 5973,
      "night": 5974,
      "Ġdimensions": 5975,
      "Ġwagged": 5976,
      "ĠProvide": 5977,
      "ĠMach": 5978,
      "Ġcontract": 5979,
      "âĢľ": 5980,
      "ooking": 5981,
      "Ġbrill": 5982,
      "Ġplays": 5983,
      "Ġincluded": 5984,
      "Ġtomato": 5985,
      "men": 5986,
      "omy": 5987,
      "Ġinternational": 5988,
      "ille": 5989,
      "Ġsupplies": 5990,
      "iano": 5991,
      "Ġcopy": 5992,
      "Ġinspired": 5993,
      "fig": 5994,
      "Ġpages": 5995,
      "Ġacid": 5996,
      "Un": 5997,
      "Ġfa": 5998,
      "Ġfurn": 5999,
      "istry": 6000,
      "Ġimplications": 6001,
      "Open": 6002,
      "oli": 6003,
      "Ġmanner": 6004,
      "Ġmanufact": 6005,
      "Ġintroduced": 6006,
      "Se": 6007,
      "ĠPort": 6008,
      "Ġmiles": 6009,
      "Ġmummy": 6010,
      "aled": 6011,
      "ĠHarry": 6012,
      "ĠCPU": 6013,
      "Ġanywhere": 6014,
      "Ġdecl": 6015,
      "Ġsolid": 6016,
      "Ġpractical": 6017,
      "ĠDisc": 6018,
      "Ġacademic": 6019,
      "Ġnois": 6020,
      "hol": 6021,
      "rier": 6022,
      "style": 6023,
      "Ġrhyth": 6024,
      "Ġwife": 6025,
      "ĠIts": 6026,
      "Ġclub": 6027,
      "Ġcontrast": 6028,
      "Ġfis": 6029,
      "ĠHave": 6030,
      "ĠLa": 6031,
      "âĸĳâĸĳ": 6032,
      "ĠReact": 6033,
      "Ġfundamental": 6034,
      "Ġrev": 6035,
      "ament": 6036,
      "Ġemp": 6037,
      "Ġinterf": 6038,
      "Ġscientists": 6039,
      "Ġcanc": 6040,
      "Ġdynamic": 6041,
      "Ad": 6042,
      "OM": 6043,
      "ris": 6044,
      "Ġdrank": 6045,
      "____": 6046,
      "ĠBefore": 6047,
      "Ġautomatically": 6048,
      "Ġenjoying": 6049,
      "Ġparticip": 6050,
      "bi": 6051,
      "born": 6052,
      "lus": 6053,
      "Ġassistance": 6054,
      "emies": 6055,
      "ocity": 6056,
      "Ġclosely": 6057,
      "icking": 6058,
      "Ġshake": 6059,
      "Ġkeyword": 6060,
      "ync": 6061,
      "ĠHi": 6062,
      "ĠAust": 6063,
      "Ġwrap": 6064,
      "Ġemotional": 6065,
      "24": 6066,
      "iders": 6067,
      "Ġlicense": 6068,
      "->": 6069,
      "Ass": 6070,
      "Ġdiverse": 6071,
      "Ġdensity": 6072,
      "uses": 6073,
      "ĠChoose": 6074,
      "using": 6075,
      "Ġexternal": 6076,
      "Ġjoined": 6077,
      "Ġkick": 6078,
      "Ġsmelly": 6079,
      "eler": 6080,
      "ifies": 6081,
      "ĠNorth": 6082,
      "Ġhighlight": 6083,
      "ĠPlay": 6084,
      "Ġsubjective": 6085,
      "width": 6086,
      "Ġpointing": 6087,
      "Step": 6088,
      "Ġcourage": 6089,
      "ĠGerman": 6090,
      "iveness": 6091,
      "Ġputting": 6092,
      "Ġreps": 6093,
      "Ġbeginning": 6094,
      "points": 6095,
      "ĠðŁ": 6096,
      "Ġine": 6097,
      "Ġhighest": 6098,
      "[\"": 6099,
      "Ġmoms": 6100,
      "ĠRun": 6101,
      "~~~~": 6102,
      "edy": 6103,
      "Ġbeans": 6104,
      "Ġvict": 6105,
      "Ġroar": 6106,
      "ĠâĢĵ": 6107,
      "ĠPeople": 6108,
      "Ġengines": 6109,
      "Ġsatisf": 6110,
      "anguage": 6111,
      "Ġshoot": 6112,
      "itution": 6113,
      "izer": 6114,
      "Ġspecified": 6115,
      "Ġdeli": 6116,
      "Ġprimarily": 6117,
      "Ġinnovation": 6118,
      "Sally": 6119,
      "Ġborn": 6120,
      "Ġhouses": 6121,
      "Ġol": 6122,
      "Ġgender": 6123,
      "ĠSte": 6124,
      "Ġjuicy": 6125,
      "ĠWell": 6126,
      "Ġcalls": 6127,
      "Ġconstrain": 6128,
      "Ġpowder": 6129,
      "Ġruined": 6130,
      "Help": 6131,
      "Ġinteger": 6132,
      "Ġcircum": 6133,
      "Ġmonths": 6134,
      "ĠAf": 6135,
      "ending": 6136,
      "Ġdispl": 6137,
      "Ġcalend": 6138,
      "Ġchannel": 6139,
      "she": 6140,
      "Ġhoriz": 6141,
      "ĠRec": 6142,
      "Ġguard": 6143,
      "grees": 6144,
      "ĠWestern": 6145,
      "abet": 6146,
      "Ġdescribed": 6147,
      "Ġbrilliant": 6148,
      "tenance": 6149,
      "Ġstatic": 6150,
      "Ġgeometry": 6151,
      "oration": 6152,
      "ascript": 6153,
      "ules": 6154,
      "Ġproced": 6155,
      "angers": 6156,
      "avascript": 6157,
      "Ġartists": 6158,
      "Ġlimits": 6159,
      "Ġimpressed": 6160,
      "mon": 6161,
      "Ġcompos": 6162,
      "Ġunable": 6163,
      "Ġbrothers": 6164,
      "Ġdreaming": 6165,
      "Ġcube": 6166,
      "iration": 6167,
      "ĠMay": 6168,
      "indow": 6169,
      "Ġsolving": 6170,
      "Ġsucceed": 6171,
      "Ġnoisy": 6172,
      "Ġbrief": 6173,
      "Ġalien": 6174,
      "Ġrecognition": 6175,
      "Ġguidance": 6176,
      "ĠUnion": 6177,
      "ĠBobby": 6178,
      "Ġupdates": 6179,
      "Ġsquee": 6180,
      "Ġbubbles": 6181,
      "ĠLeo": 6182,
      "etime": 6183,
      "Ġimpossible": 6184,
      "Ġtransition": 6185,
      "Ġforces": 6186,
      "apes": 6187,
      "anges": 6188,
      "Ġbecoming": 6189,
      "Ġovercome": 6190,
      "ĠGrand": 6191,
      "TH": 6192,
      "function": 6193,
      "Ġdelicate": 6194,
      "Sc": 6195,
      "cked": 6196,
      "Ġsection": 6197,
      "Ġhose": 6198,
      "Ġessay": 6199,
      "ellent": 6200,
      "Ġconsumption": 6201,
      "Ġchoices": 6202,
      "Ġnuclear": 6203,
      "='": 6204,
      "Ġhour": 6205,
      "Ġwilling": 6206,
      "Ġwealthy": 6207,
      "ĠTweet": 6208,
      "econd": 6209,
      "ĠJS": 6210,
      "include": 6211,
      "ealous": 6212,
      "osen": 6213,
      "Ġuncle": 6214,
      "Ġinteractions": 6215,
      "ionate": 6216,
      "rim": 6217,
      "Ġ```": 6218,
      "Ġshift": 6219,
      "urrent": 6220,
      "Ġearlier": 6221,
      "Ġstudying": 6222,
      "Ġsudden": 6223,
      "App": 6224,
      "ĠUnder": 6225,
      "Ġsplashed": 6226,
      "nes": 6227,
      "title": 6228,
      "ĠPower": 6229,
      "Ġboys": 6230,
      "Ġearthqu": 6231,
      "fit": 6232,
      "Ġfork": 6233,
      "Ġsex": 6234,
      "ĠApple": 6235,
      "Ġsink": 6236,
      "Ġdial": 6237,
      "Ġlayout": 6238,
      "ref": 6239,
      "ingu": 6240,
      "allow": 6241,
      "Ġsorts": 6242,
      "going": 6243,
      "Time": 6244,
      "Ġtab": 6245,
      "Ġhats": 6246,
      "ĠSol": 6247,
      "Ġplayground": 6248,
      "Ġcharm": 6249,
      "Ġjealous": 6250,
      "Ġfriendship": 6251,
      "image": 6252,
      "Ġtreatment": 6253,
      "Ġapplied": 6254,
      "eli": 6255,
      "Ġfright": 6256,
      "Ġvisited": 6257,
      "Ġ},": 6258,
      "Ġmask": 6259,
      "Ġweigh": 6260,
      "phone": 6261,
      "Ġwhisp": 6262,
      "hand": 6263,
      "Ġstumbled": 6264,
      "Ġbeat": 6265,
      "ashing": 6266,
      "ĠArt": 6267,
      "izard": 6268,
      "Ġdegree": 6269,
      "Ġassume": 6270,
      "Ġlicked": 6271,
      "iate": 6272,
      "Ġturning": 6273,
      "untu": 6274,
      "Ġdolph": 6275,
      "Ġpoll": 6276,
      "stream": 6277,
      "Ġann": 6278,
      "ains": 6279,
      "Ġshells": 6280,
      "Ġcheerful": 6281,
      "au": 6282,
      "Ġspending": 6283,
      "Ġlifted": 6284,
      "âĸĵâĸĵ": 6285,
      "omic": 6286,
      "Ġenemies": 6287,
      "ĠAnother": 6288,
      "roph": 6289,
      "Ġdemocr": 6290,
      "HT": 6291,
      "Ġtrap": 6292,
      "ĠRob": 6293,
      "Ġseeing": 6294,
      "Ġmonitor": 6295,
      "Ġcopyright": 6296,
      "Ġbubble": 6297,
      "Amy": 6298,
      "Ġensuring": 6299,
      "pected": 6300,
      "Ġafford": 6301,
      "orable": 6302,
      "Ġsailed": 6303,
      "ĠMed": 6304,
      "Ġparallel": 6305,
      "mark": 6306,
      "Ġforth": 6307,
      "Ġshot": 6308,
      "Ġsock": 6309,
      "\";": 6310,
      "Ġlamp": 6311,
      "plan": 6312,
      "lib": 6313,
      "ĠDoes": 6314,
      "gl": 6315,
      "eady": 6316,
      "Ġefforts": 6317,
      "Ġinputs": 6318,
      "Ġweeks": 6319,
      "label": 6320,
      "ĠTrue": 6321,
      "Ġopportunity": 6322,
      "Ġspinning": 6323,
      "Ġthoughtful": 6324,
      "Ġspecialized": 6325,
      "Ġvolcan": 6326,
      "Ġsilver": 6327,
      "Ġcitiz": 6328,
      "Ġdre": 6329,
      "Ġrap": 6330,
      "ĠAmerica": 6331,
      "Ġfurniture": 6332,
      "gu": 6333,
      "Ġefficiently": 6334,
      "Ġdie": 6335,
      "ĠCO": 6336,
      "Ġcheap": 6337,
      "Ġorganize": 6338,
      "rot": 6339,
      "osis": 6340,
      "ĠSusie": 6341,
      "Ġrepository": 6342,
      "Ġtoast": 6343,
      "ĠLat": 6344,
      "Ġchase": 6345,
      "Ġpopularity": 6346,
      "ĠTime": 6347,
      "Ġroof": 6348,
      "roduction": 6349,
      "Ġsurvive": 6350,
      "Ġdreamed": 6351,
      "Create": 6352,
      "Ã³": 6353,
      "cohol": 6354,
      "Ġpirate": 6355,
      "Ġliqu": 6356,
      "Ġlandscape": 6357,
      "Ġseconds": 6358,
      "Ġpapers": 6359,
      "unge": 6360,
      "Ġfrown": 6361,
      "().": 6362,
      "Ġwitch": 6363,
      "];": 6364,
      "pet": 6365,
      "process": 6366,
      "Ġidentity": 6367,
      "Ġholes": 6368,
      "CE": 6369,
      "Ġchosen": 6370,
      "ĠPo": 6371,
      "Ġoxygen": 6372,
      "Ġstation": 6373,
      "ossy": 6374,
      "Ġopens": 6375,
      "Ġvibr": 6376,
      "Ġtied": 6377,
      "Ġhes": 6378,
      "ĠBu": 6379,
      "ĠOur": 6380,
      "agement": 6381,
      "Ġserved": 6382,
      "uis": 6383,
      "ugs": 6384,
      "Ġformal": 6385,
      "Ġbitter": 6386,
      "Ġadopt": 6387,
      "Ġprinting": 6388,
      "json": 6389,
      "item": 6390,
      "Ġcreativity": 6391,
      "2023": 6392,
      "\"\"": 6393,
      "Ġdegrees": 6394,
      "Ġremote": 6395,
      "Ġzip": 6396,
      "AION": 6397,
      "fl": 6398,
      "Ġenorm": 6399,
      "case": 6400,
      "Ġbreaking": 6401,
      "Ġelectricity": 6402,
      "Ġmarch": 6403,
      "Ġplenty": 6404,
      "umin": 6405,
      "Ġspring": 6406,
      "person": 6407,
      "array": 6408,
      "Ġpersonality": 6409,
      "Ġdistinct": 6410,
      "Ġleader": 6411,
      "Ġdiagn": 6412,
      "Res": 6413,
      "ÃŃ": 6414,
      "uming": 6415,
      "ĠDuring": 6416,
      "Ġhurts": 6417,
      "ounced": 6418,
      "Ġmanager": 6419,
      "map": 6420,
      "Ġfem": 6421,
      "Ġpatch": 6422,
      "Ġdeveloper": 6423,
      "Comp": 6424,
      "var": 6425,
      "Ġmatrix": 6426,
      "Ġshadow": 6427,
      "():": 6428,
      "ĠFrance": 6429,
      "');": 6430,
      "Ġtiger": 6431,
      "Ġcounting": 6432,
      "Ġconfident": 6433,
      "####": 6434,
      "cor": 6435,
      "oad": 6436,
      "Ġfierce": 6437,
      "Ġparagraph": 6438,
      "ractice": 6439,
      "Ġfoolish": 6440,
      "uman": 6441,
      "Ġlocked": 6442,
      "Ġpurchase": 6443,
      "init": 6444,
      "Ġobserved": 6445,
      "IM": 6446,
      "atur": 6447,
      "Ġassign": 6448,
      "ĠDave": 6449,
      "hydr": 6450,
      "Ġcarrying": 6451,
      "HP": 6452,
      "Ġwhale": 6453,
      "Ġandroid": 6454,
      "isk": 6455,
      "Ġpour": 6456,
      "ĠOff": 6457,
      "Ġjack": 6458,
      "Ġobserv": 6459,
      "Ġconcent": 6460,
      "Ġenormous": 6461,
      "ĠLearning": 6462,
      "Ġcra": 6463,
      "osity": 6464,
      "Ġfoundation": 6465,
      "Ġrealised": 6466,
      "Ġinternal": 6467,
      "Ġworkers": 6468,
      "Ġbusinesses": 6469,
      "Ġencourage": 6470,
      "igation": 6471,
      "Ġviews": 6472,
      "Ġsummar": 6473,
      "Ġprioritize": 6474,
      "Ġterrible": 6475,
      "89": 6476,
      "abric": 6477,
      "nesses": 6478,
      "aign": 6479,
      "emo": 6480,
      "lose": 6481,
      "ĠStr": 6482,
      "Ġminimum": 6483,
      "Ġwrapped": 6484,
      "ĠEllie": 6485,
      "Ġappears": 6486,
      "Ġordinary": 6487,
      "200": 6488,
      "ĠJan": 6489,
      "azon": 6490,
      "dim": 6491,
      "Ġleads": 6492,
      "haps": 6493,
      "hetic": 6494,
      "Ġdistributed": 6495,
      "Ġtong": 6496,
      "Ġdizzy": 6497,
      "Ġcogn": 6498,
      "Ġswan": 6499,
      "uing": 6500,
      "}{": 6501,
      "Ġtank": 6502,
      "ĠElect": 6503,
      "aker": 6504,
      "hesis": 6505,
      "free": 6506,
      "ario": 6507,
      "Ġshut": 6508,
      "Ġacqu": 6509,
      "Ġbags": 6510,
      "Ġrod": 6511,
      "^^^^": 6512,
      "Ġderiv": 6513,
      "wr": 6514,
      "ĠPar": 6515,
      "ĠRose": 6516,
      "Ġhammer": 6517,
      "Ġcrystal": 6518,
      "sub": 6519,
      "Ġconver": 6520,
      "Get": 6521,
      "IG": 6522,
      "rol": 6523,
      "Ġmighty": 6524,
      "Ġpaw": 6525,
      "Ġsorted": 6526,
      "frame": 6527,
      "Text": 6528,
      "Ġdecre": 6529,
      "Ġmuse": 6530,
      "Ġdistant": 6531,
      "lean": 6532,
      "Ġcompar": 6533,
      "password": 6534,
      "Ġpilot": 6535,
      "anas": 6536,
      "Ġtrunk": 6537,
      "ĠInstall": 6538,
      "powered": 6539,
      "len": 6540,
      "Ġtoken": 6541,
      "Ġseeking": 6542,
      "laimed": 6543,
      "Ġabsor": 6544,
      "Ġbillion": 6545,
      "Ġvelocity": 6546,
      "Ġcalendar": 6547,
      "Ġsnee": 6548,
      "arian": 6549,
      "Ġmodified": 6550,
      "Ġservers": 6551,
      "lik": 6552,
      "Ġnone": 6553,
      "Ġalive": 6554,
      "ores": 6555,
      "Ġago": 6556,
      "Ġdisappear": 6557,
      "Ġsustainable": 6558,
      "bot": 6559,
      "mers": 6560,
      "rete": 6561,
      "ĠRet": 6562,
      "Ġarticle": 6563,
      "Ġweapons": 6564,
      "Spot": 6565,
      "Ġteaspoon": 6566,
      "Ġstability": 6567,
      "Ġemployees": 6568,
      "Ġinjury": 6569,
      "corn": 6570,
      "iot": 6571,
      "ilty": 6572,
      "Ġrolling": 6573,
      "with": 6574,
      "formation": 6575,
      "Ġlouder": 6576,
      "Ã¡": 6577,
      "Ġaid": 6578,
      "uster": 6579,
      "icated": 6580,
      "ĠID": 6581,
      "bert": 6582,
      "ĠAfric": 6583,
      "Ġnational": 6584,
      "ums": 6585,
      "Ġbuildings": 6586,
      "Ġfacts": 6587,
      "Ġreinforce": 6588,
      "Ġexchange": 6589,
      "ĠFind": 6590,
      "Ġprices": 6591,
      "Ġpee": 6592,
      "Ġpiano": 6593,
      "ague": 6594,
      "Ġcriter": 6595,
      "Ġfrequency": 6596,
      "Ġmobile": 6597,
      "See": 6598,
      "Ġ__": 6599,
      "!\".": 6600,
      "Mummy": 6601,
      "sort": 6602,
      "your": 6603,
      "Ġbinary": 6604,
      "Ġskipped": 6605,
      "pha": 6606,
      "Ġbicycle": 6607,
      "Ġtherefore": 6608,
      "Ġunex": 6609,
      "Ġentertain": 6610,
      "porary": 6611,
      "Ġfulf": 6612,
      "Ġtomatoes": 6613,
      "zen": 6614,
      "eterm": 6615,
      "iform": 6616,
      "Ġqueries": 6617,
      "ĠStep": 6618,
      "Ġmagn": 6619,
      "Ġhesit": 6620,
      "rices": 6621,
      "Ð¾": 6622,
      "Ġpige": 6623,
      "Ġcolourful": 6624,
      "CP": 6625,
      "nding": 6626,
      "ĠMart": 6627,
      "Ġlie": 6628,
      "ugged": 6629,
      "Ġediting": 6630,
      "ica": 6631,
      "Ġballoons": 6632,
      "ĠStar": 6633,
      "Ġcontrovers": 6634,
      "Ġcrawled": 6635,
      "Ġbin": 6636,
      "Ġfountain": 6637,
      "ĠBobo": 6638,
      "Ġconsidering": 6639,
      "hett": 6640,
      "opter": 6641,
      "Ġaircraft": 6642,
      "ĠÎ": 6643,
      "Ġbossy": 6644,
      "table": 6645,
      "ĠSorry": 6646,
      "Ġapproaches": 6647,
      "Ġsyn": 6648,
      "Ġrhythm": 6649,
      "Ġharsh": 6650,
      "ĠPat": 6651,
      "Ġbenefit": 6652,
      "Ġstrengths": 6653,
      "Ġperspectives": 6654,
      "Ġdocumentation": 6655,
      "Ġevaluate": 6656,
      "onal": 6657,
      "Ġshark": 6658,
      "aghett": 6659,
      "Ġdeploy": 6660,
      "Ġdestination": 6661,
      "Ġaccomplish": 6662,
      "Ġincome": 6663,
      "Ġplanets": 6664,
      "Ġmultipl": 6665,
      "Ġphrase": 6666,
      "Ġoverview": 6667,
      "ĠYork": 6668,
      "Ġ...": 6669,
      "Ġhabit": 6670,
      "Ġ||": 6671,
      "Ġloudly": 6672,
      "Ġappearance": 6673,
      "'.": 6674,
      "Ġyarn": 6675,
      "Ġanime": 6676,
      "Ġscare": 6677,
      "Ġpersonalized": 6678,
      "--------------------------------": 6679,
      "ĠCalcul": 6680,
      "ql": 6681,
      "Ġgraceful": 6682,
      "Ġgasp": 6683,
      "Ġstove": 6684,
      "Ġexperim": 6685,
      "azi": 6686,
      "Ġenvironments": 6687,
      "fortable": 6688,
      "Ġlaughs": 6689,
      "aborate": 6690,
      "Ġvalidation": 6691,
      "Ġcampaign": 6692,
      "All": 6693,
      "Ġbarn": 6694,
      "Ġnur": 6695,
      "rient": 6696,
      "Ġconvent": 6697,
      "aching": 6698,
      "Ġuncom": 6699,
      "Ġpersistent": 6700,
      "Cont": 6701,
      "upid": 6702,
      "Ġcycle": 6703,
      "Ġprepared": 6704,
      "aghetti": 6705,
      "ĠPart": 6706,
      "Ġenable": 6707,
      "ĠNext": 6708,
      "Ġprize": 6709,
      "ĠProt": 6710,
      "ĠMrs": 6711,
      "Ġreviews": 6712,
      "âĸĪâĸĪâĸĪâĸĪ": 6713,
      "Ġsimpler": 6714,
      "affeine": 6715,
      "Ġreligious": 6716,
      "ĠPete": 6717,
      "Ġlaptop": 6718,
      "lor": 6719,
      "making": 6720,
      "Ġgalax": 6721,
      "Ġchose": 6722,
      "Ġagree": 6723,
      "Ġcereal": 6724,
      "Ġcert": 6725,
      "Ġriding": 6726,
      "herent": 6727,
      "Ġplans": 6728,
      "Ġlightning": 6729,
      "Ġlocations": 6730,
      "Ġsaving": 6731,
      "stac": 6732,
      "ĠLanguage": 6733,
      "ĠInter": 6734,
      "Ġadds": 6735,
      "Ġtrucks": 6736,
      "Ġexpertise": 6737,
      "engu": 6738,
      "Ġjokes": 6739,
      "Ġcollected": 6740,
      "Ġresc": 6741,
      "Ġinters": 6742,
      "Ġfragile": 6743,
      "gory": 6744,
      "java": 6745,
      "zard": 6746,
      "ĠII": 6747,
      "ĠURL": 6748,
      "Ġhandling": 6749,
      "Ġtransp": 6750,
      "ĠâĪ": 6751,
      "Ġske": 6752,
      "Ġpine": 6753,
      "Ġheal": 6754,
      "Ġnation": 6755,
      "Ġworkout": 6756,
      "Ġstandards": 6757,
      "Ġstruggle": 6758,
      "Col": 6759,
      "inating": 6760,
      "ĠSal": 6761,
      "Ġdrinking": 6762,
      "Ġspoke": 6763,
      "Ġlifest": 6764,
      "Ġstruggling": 6765,
      "AP": 6766,
      "Ġtone": 6767,
      "Ġagre": 6768,
      "Ġproudly": 6769,
      "Ġemergency": 6770,
      "Ġtra": 6771,
      "Ġteaching": 6772,
      "ĠToby": 6773,
      "Ġjug": 6774,
      "ĠPHP": 6775,
      "center": 6776,
      "ĠSee": 6777,
      "())": 6778,
      "Ġguilty": 6779,
      "Ġtrusted": 6780,
      "Ġresearchers": 6781,
      "imal": 6782,
      "Ġalcohol": 6783,
      "Ġobed": 6784,
      "ÅĵLet": 6785,
      "Ġgolden": 6786,
      "Ġnoting": 6787,
      "Ġkicked": 6788,
      "ĠRevolution": 6789,
      "ERT": 6790,
      "Ġcollaboration": 6791,
      "SQL": 6792,
      "Ġgear": 6793,
      "Ġtrav": 6794,
      "Ġgoods": 6795,
      "Ġcrow": 6796,
      "Ġenhance": 6797,
      "arter": 6798,
      "Ġavo": 6799,
      "Ġmovements": 6800,
      "Ġfict": 6801,
      "iches": 6802,
      "Ġsav": 6803,
      "essert": 6804,
      "Ġvir": 6805,
      "ptions": 6806,
      "Ġknock": 6807,
      "FT": 6808,
      "ĠSch": 6809,
      "Ġregions": 6810,
      "Ġsounded": 6811,
      "Ġtitle": 6812,
      "Ġslipped": 6813,
      "Ġcelebrate": 6814,
      "Ġtongue": 6815,
      "Ġped": 6816,
      "aint": 6817,
      "Ġunf": 6818,
      "Ġencod": 6819,
      "ĠAustral": 6820,
      "ÅĵYes": 6821,
      "comes": 6822,
      "ĠJSON": 6823,
      "Chor": 6824,
      "SP": 6825,
      "vision": 6826,
      "real": 6827,
      "oul": 6828,
      "Ġcompleted": 6829,
      "Ġfantasy": 6830,
      "ensional": 6831,
      "Ġexcitedly": 6832,
      "Ġbreed": 6833,
      "Ġmemories": 6834,
      "ĠSnow": 6835,
      "ections": 6836,
      "Ġroots": 6837,
      "action": 6838,
      "likely": 6839,
      "Ġdove": 6840,
      "ĠDoc": 6841,
      "Ġmaintenance": 6842,
      "Ġequival": 6843,
      "Ġaccurately": 6844,
      "equ": 6845,
      "Ġic": 6846,
      "index": 6847,
      "Ġsimulation": 6848,
      "Ġhanded": 6849,
      "Ġcombined": 6850,
      "Ġmaintaining": 6851,
      "Ġstops": 6852,
      "Ġstupid": 6853,
      "unc": 6854,
      "ĠMummy": 6855,
      "Ġupload": 6856,
      "Ġspaghetti": 6857,
      "Ġtests": 6858,
      "Ġspoiled": 6859,
      "rt": 6860,
      "Ġrates": 6861,
      "heart": 6862,
      "token": 6863,
      "Ġcharming": 6864,
      "noon": 6865,
      "Ġimplemented": 6866,
      "Ġoptimization": 6867,
      "ĠComput": 6868,
      "Ġphoto": 6869,
      "Ġtorn": 6870,
      "Jimmy": 6871,
      "olk": 6872,
      "ĠBill": 6873,
      "Ġtransm": 6874,
      "Ġintegers": 6875,
      "standing": 6876,
      "Qu": 6877,
      "lin": 6878,
      "ĠForm": 6879,
      "Ġresist": 6880,
      "Ġmerge": 6881,
      "ĠGame": 6882,
      "mbre": 6883,
      "holders": 6884,
      "Ġuniversity": 6885,
      "Ġfrightened": 6886,
      "Ġpadd": 6887,
      "Ġdiscovery": 6888,
      "append": 6889,
      "client": 6890,
      "Ġpuzzles": 6891,
      "Ultimately": 6892,
      "cond": 6893,
      "Ġdisag": 6894,
      "Ġhoping": 6895,
      "Ġfreedom": 6896,
      "Ġdictionary": 6897,
      "Ġcrazy": 6898,
      "fitting": 6899,
      "ĠAny": 6900,
      "Ġassess": 6901,
      "Ġcontinuous": 6902,
      "Ġnicely": 6903,
      "Ġcel": 6904,
      "Ġshone": 6905,
      "alled": 6906,
      "Ġuns": 6907,
      "Ġvectors": 6908,
      "Chorus": 6909,
      "unning": 6910,
      "Ġcomment": 6911,
      "ĠElla": 6912,
      "Ġsunlight": 6913,
      "Ġelectronic": 6914,
      "Line": 6915,
      "icians": 6916,
      "Ġseal": 6917,
      "ĠEU": 6918,
      "Ġapps": 6919,
      "inese": 6920,
      "ĠGraph": 6921,
      "ĠScience": 6922,
      "GB": 6923,
      "Ġhay": 6924,
      "ĠCat": 6925,
      "Ġbuck": 6926,
      "Ġinvited": 6927,
      "Ġblockchain": 6928,
      "Pl": 6929,
      "Ġbot": 6930,
      "Ġexists": 6931,
      "ĠMandy": 6932,
      "Ġevening": 6933,
      "Ġinfl": 6934,
      "ifying": 6935,
      "Ġmood": 6936,
      "ĠTe": 6937,
      "Ġexclaimed": 6938,
      "Ġgreatest": 6939,
      "position": 6940,
      "lines": 6941,
      "no": 6942,
      "ooks": 6943,
      "Ġnotation": 6944,
      "Ġjam": 6945,
      "Ġ60": 6946,
      "Ġsteam": 6947,
      "Ġbrightly": 6948,
      "Ġrepeated": 6949,
      "Ġlid": 6950,
      "Ġoptimize": 6951,
      "Ġdocuments": 6952,
      "ãĤ": 6953,
      "Ġslic": 6954,
      "Ġmatrices": 6955,
      "Ġregarding": 6956,
      "Ġbump": 6957,
      "Ġunlikely": 6958,
      "Ġvegan": 6959,
      "Ġprotocol": 6960,
      "Ġprotected": 6961,
      "Ġreminded": 6962,
      "ĠTwitter": 6963,
      "Ġnodes": 6964,
      "Ġhyper": 6965,
      "Ġrapid": 6966,
      "oral": 6967,
      "Ġpengu": 6968,
      "output": 6969,
      "example": 6970,
      "inf": 6971,
      "Ġoct": 6972,
      "Ġrid": 6973,
      "Ġumbre": 6974,
      "Ġze": 6975,
      "Ġflashlight": 6976,
      "Ġobedient": 6977,
      "Ġbac": 6978,
      "Ġobstac": 6979,
      "Ġturkey": 6980,
      "Ġ]": 6981,
      "Ġtit": 6982,
      "Ġcm": 6983,
      "esh": 6984,
      "Ġjet": 6985,
      "Ġoutcome": 6986,
      "Ġbasis": 6987,
      "Ġille": 6988,
      "Ġfaced": 6989,
      "Ġdessert": 6990,
      "ĠEnder": 6991,
      "anging": 6992,
      "Ġhunter": 6993,
      "spe": 6994,
      "Ġflav": 6995,
      "Ġbehave": 6996,
      "Ġminute": 6997,
      "Ġwhispered": 6998,
      "Base": 6999,
      "Ġnosy": 7000,
      "ands": 7001,
      "Ġhash": 7002,
      "ĠResearch": 7003,
      "Ġopposite": 7004,
      "Ġuncomfortable": 7005,
      "UI": 7006,
      "itors": 7007,
      "irp": 7008,
      "Ġprints": 7009,
      "Ġprofession": 7010,
      "ĠEngine": 7011,
      "Ġabsol": 7012,
      "Ġnumerous": 7013,
      "count": 7014,
      "Ġcaut": 7015,
      "ishing": 7016,
      "Ġyoga": 7017,
      "Frame": 7018,
      "Ġcomprehensive": 7019,
      "01": 7020,
      "nom": 7021,
      "Ġtube": 7022,
      "arant": 7023,
      "Ġbees": 7024,
      "Ġspun": 7025,
      "Ġgreatly": 7026,
      "Ġbalanced": 7027,
      "Since": 7028,
      "Ġsuggests": 7029,
      "Ġbarber": 7030,
      "Br": 7031,
      "Ġshall": 7032,
      "Ġ199": 7033,
      "cing": 7034,
      "Ġcrop": 7035,
      "ĠSoph": 7036,
      "Ġconstraints": 7037,
      "dge": 7038,
      "reg": 7039,
      "antic": 7040,
      "Ġmeow": 7041,
      "Ġsevere": 7042,
      "Ġrode": 7043,
      "ician": 7044,
      "Ġimplementing": 7045,
      "reme": 7046,
      "Ġongoing": 7047,
      "Ġcircumst": 7048,
      "being": 7049,
      "Ġremaining": 7050,
      "Out": 7051,
      "Ġchuck": 7052,
      "Ġboats": 7053,
      "Ġbushes": 7054,
      "Ġclimbing": 7055,
      "Ġgasped": 7056,
      "Ġicy": 7057,
      "Ġhi": 7058,
      "Ġarc": 7059,
      "Ġintroduce": 7060,
      "Ġlifestyle": 7061,
      "((": 7062,
      "cel": 7063,
      "Ġtrop": 7064,
      "Ġcities": 7065,
      "atever": 7066,
      "Ġtemplate": 7067,
      "Ġpotatoes": 7068,
      "oke": 7069,
      "ĠHo": 7070,
      "ends": 7071,
      "Ġdistract": 7072,
      "Ġdelighted": 7073,
      "ening": 7074,
      "anted": 7075,
      "start": 7076,
      "Ġsurrounding": 7077,
      "Ġdelivery": 7078,
      "such": 7079,
      "Ġthirst": 7080,
      "Ġinsights": 7081,
      "Ġangel": 7082,
      "Ġexposure": 7083,
      "Ġfictional": 7084,
      "Ġaunt": 7085,
      "ĠLike": 7086,
      "cker": 7087,
      "Ġoffering": 7088,
      "Ġweapon": 7089,
      "erse": 7090,
      "Ġstub": 7091,
      "Ġreactions": 7092,
      "AB": 7093,
      "Ġpoured": 7094,
      "Ġreverse": 7095,
      "Ġindicate": 7096,
      "ĠUnivers": 7097,
      "Ġparameter": 7098,
      "Ġwizard": 7099,
      "Ġconnections": 7100,
      "Ġmint": 7101,
      "Ġproport": 7102,
      "Ġevolved": 7103,
      "Ġelectrical": 7104,
      "Ġcharacteristics": 7105,
      "Ġsecrets": 7106,
      "Next": 7107,
      "enry": 7108,
      "Ġpopcorn": 7109,
      "Ġretrieve": 7110,
      "aust": 7111,
      "tical": 7112,
      "uke": 7113,
      "ypes": 7114,
      "Ġtechnological": 7115,
      "Ġdependable": 7116,
      "Ġmanaging": 7117,
      "Ġcupboard": 7118,
      "Ġportal": 7119,
      "Ġgrandpa": 7120,
      "Ġpandas": 7121,
      "Ġfacing": 7122,
      "urther": 7123,
      "Ġrais": 7124,
      "Ġrecip": 7125,
      "lets": 7126,
      "Ġattractive": 7127,
      "Billy": 7128,
      "hem": 7129,
      "Ġinteractive": 7130,
      "Ġcrayon": 7131,
      "Ġpaddle": 7132,
      "buntu": 7133,
      "Ġyield": 7134,
      "Ġrevolution": 7135,
      "ĠNone": 7136,
      "Ġbirdie": 7137,
      "Ġsupported": 7138,
      "Ġunexpected": 7139,
      "Ġtire": 7140,
      "robe": 7141,
      "Ġintended": 7142,
      "Ġfasting": 7143,
      "ĠText": 7144,
      "Ġreput": 7145,
      "api": 7146,
      "ccoli": 7147,
      "Inter": 7148,
      "ĠBlack": 7149,
      "note": 7150,
      "Ġstairs": 7151,
      "ĠMac": 7152,
      "actions": 7153,
      "Ġsadly": 7154,
      "Ġgenerating": 7155,
      "ĠKim": 7156,
      "ÅĵIt": 7157,
      "arlie": 7158,
      "75": 7159,
      "Sue": 7160,
      "ĠType": 7161,
      "urrency": 7162,
      "Ġneedle": 7163,
      "Ġevolution": 7164,
      "Ġorigin": 7165,
      "Ġparadox": 7166,
      "Ġmuff": 7167,
      "Ġcomments": 7168,
      "Ġoutcomes": 7169,
      "Ġmuscles": 7170,
      "lements": 7171,
      "root": 7172,
      "Ġvine": 7173,
      "Ġacorn": 7174,
      "encing": 7175,
      "Ġteams": 7176,
      "Ġstatue": 7177,
      "Ġmeasured": 7178,
      "Ġraised": 7179,
      "Ġinstrument": 7180,
      "Ġbears": 7181,
      "this": 7182,
      "Ġpositions": 7183,
      "ÅĵWhat": 7184,
      "Ġdistur": 7185,
      "Ġextrem": 7186,
      "Ġtemperatures": 7187,
      "Ġmassive": 7188,
      "ooter": 7189,
      "Ġep": 7190,
      "Ġease": 7191,
      "acement": 7192,
      "rior": 7193,
      "Ġtrains": 7194,
      "Ġultimately": 7195,
      "code": 7196,
      "inant": 7197,
      "Ġot": 7198,
      "Ġfans": 7199,
      "Ġintr": 7200,
      "Ġdiffer": 7201,
      "Ġacceler": 7202,
      "Ġbiological": 7203,
      "Ġmarketing": 7204,
      "Id": 7205,
      "ĠHelp": 7206,
      "Ġgrid": 7207,
      "Ġscenario": 7208,
      "Ġwiped": 7209,
      "orter": 7210,
      "ĠSub": 7211,
      "umes": 7212,
      "Ġproduced": 7213,
      "Ġmultip": 7214,
      "Ġmission": 7215,
      "Ġpainted": 7216,
      "dimensional": 7217,
      "Ġsix": 7218,
      "Ġbeak": 7219,
      "ffect": 7220,
      "Ġshoulder": 7221,
      "entials": 7222,
      "kens": 7223,
      "Ġfirm": 7224,
      "Ġrender": 7225,
      "Ġsomewhere": 7226,
      "ĠRub": 7227,
      "Ġrepeat": 7228,
      "Ġslides": 7229,
      "Ġcontaining": 7230,
      "ĠDespite": 7231,
      "local": 7232,
      "ammar": 7233,
      "Ġreb": 7234,
      "aining": 7235,
      "Ġinfluential": 7236,
      "Ġpredictions": 7237,
      "Ġgarlic": 7238,
      "Ġcognitive": 7239,
      "Ġ!": 7240,
      "Ġgall": 7241,
      "Ġhelic": 7242,
      "Ġparties": 7243,
      "State": 7244,
      "Ġsoldier": 7245,
      "Ġspells": 7246,
      "Ġguidelines": 7247,
      "Ġyogurt": 7248,
      "OP": 7249,
      "PL": 7250,
      "ĠLL": 7251,
      "Ġemissions": 7252,
      "Ġgained": 7253,
      "frac": 7254,
      "ena": 7255,
      "Ġ24": 7256,
      "Ġsniff": 7257,
      "Ġrestore": 7258,
      "Ġhotel": 7259,
      ",,,,": 7260,
      "Ġwagon": 7261,
      "Ġjustice": 7262,
      "Ġcris": 7263,
      "Ġsociet": 7264,
      "rogen": 7265,
      "Ġbananas": 7266,
      "Ġbelonged": 7267,
      "Ġcoding": 7268,
      "Ġopinion": 7269,
      "âķ£": 7270,
      "Ġpackages": 7271,
      "Ġcutting": 7272,
      "Ġdebate": 7273,
      "Ġauthentication": 7274,
      "ĠMachine": 7275,
      "uber": 7276,
      "yl": 7277,
      "Ġwine": 7278,
      "Ġbodies": 7279,
      "Ġgoat": 7280,
      "Ġinsurance": 7281,
      "Ġeditor": 7282,
      "attered": 7283,
      "Ġequivalent": 7284,
      "Jill": 7285,
      "Ġcroc": 7286,
      "Ġbent": 7287,
      "ĠRE": 7288,
      "Ġtyping": 7289,
      "cules": 7290,
      "Ġexcellent": 7291,
      "Ġlaunch": 7292,
      "Ġrealistic": 7293,
      "Ġtexture": 7294,
      "bing": 7295,
      "Ġq": 7296,
      "Ġshelter": 7297,
      "Ġaer": 7298,
      "Ġreaches": 7299,
      "Ġneut": 7300,
      "opy": 7301,
      "ĠAmazon": 7302,
      "Ġrushed": 7303,
      "Ġstatements": 7304,
      "''": 7305,
      "td": 7306,
      "Ġdoors": 7307,
      "Ġconcise": 7308,
      "Ġimpacts": 7309,
      "Ġconstruction": 7310,
      "ĠDesign": 7311,
      "={": 7312,
      "advant": 7313,
      "Ġboots": 7314,
      "Ġreplaced": 7315,
      "ĠUnity": 7316,
      "Ġshopping": 7317,
      "ĠAnt": 7318,
      "Ġclap": 7319,
      "Ġdesire": 7320,
      "Ġended": 7321,
      "ernel": 7322,
      "Ġavailability": 7323,
      "ptic": 7324,
      "Ġsteak": 7325,
      "Ġtrading": 7326,
      "Ġimagined": 7327,
      "Ġphenomenon": 7328,
      "Ġbounce": 7329,
      "icit": 7330,
      "Ġdear": 7331,
      "Ġstores": 7332,
      "erring": 7333,
      "Ġcircumstances": 7334,
      "ban": 7335,
      "Ġshocked": 7336,
      "ĠCSV": 7337,
      "ĠJul": 7338,
      "Ġcommerc": 7339,
      "Ġreader": 7340,
      "Ġ[]": 7341,
      "Ġencounter": 7342,
      "Ġdatasets": 7343,
      "Ġhall": 7344,
      "ĠBella": 7345,
      "Ġeveryday": 7346,
      "Ġumbrella": 7347,
      "Ġalthough": 7348,
      "Ġjolly": 7349,
      "aped": 7350,
      "Ġadvert": 7351,
      "ĠString": 7352,
      "Ġtypical": 7353,
      "Ġpushing": 7354,
      "Ġcooper": 7355,
      "Ġwisdom": 7356,
      "Ġpup": 7357,
      "Ġfrequently": 7358,
      "Ġopinions": 7359,
      "ĠSk": 7360,
      "Ġmoder": 7361,
      "Ġinformed": 7362,
      "Ġcounted": 7363,
      "Ġoutputs": 7364,
      "bash": 7365,
      "Ġrely": 7366,
      "ĠAng": 7367,
      "ĠAndroid": 7368,
      "Ġattach": 7369,
      "Ġrespectful": 7370,
      "Ð°": 7371,
      "ora": 7372,
      "ĠRem": 7373,
      "Ġafternoon": 7374,
      "Ġtowers": 7375,
      "Ġnumpy": 7376,
      "Ġperforming": 7377,
      "Ġmystery": 7378,
      "Ġproof": 7379,
      "Ġoutdo": 7380,
      "Ġshouldn": 7381,
      "azz": 7382,
      "Ġsuccessfully": 7383,
      "Ġdull": 7384,
      "Ġchirp": 7385,
      "Ġtwig": 7386,
      "Ġsubt": 7387,
      "Ġimprovement": 7388,
      "Ġfisher": 7389,
      "\"?": 7390,
      "itely": 7391,
      "lete": 7392,
      "Ġpressed": 7393,
      "orough": 7394,
      "Ġdecent": 7395,
      "Ġequations": 7396,
      "Ġcourses": 7397,
      "Ġgradually": 7398,
      "while": 7399,
      "Ġfed": 7400,
      "Ġlinks": 7401,
      "Ġgor": 7402,
      "ĠAp": 7403,
      "Ġexperts": 7404,
      "Ġparticle": 7405,
      "Ow": 7406,
      "edding": 7407,
      "Ġfabric": 7408,
      "Ġwashed": 7409,
      "db": 7410,
      "Ġfort": 7411,
      "Ġtricks": 7412,
      "WS": 7413,
      "cour": 7414,
      "ĠOb": 7415,
      "ĠWhenever": 7416,
      "Ġsolved": 7417,
      "Ã¤": 7418,
      "Ġtummy": 7419,
      "ithub": 7420,
      "ĠMost": 7421,
      "Ġsignals": 7422,
      "Ġsurvival": 7423,
      "Ġdolphin": 7424,
      "pair": 7425,
      "rics": 7426,
      "Ġresistance": 7427,
      "ancer": 7428,
      "Ġaffected": 7429,
      "pread": 7430,
      "idespread": 7431,
      "UR": 7432,
      "tes": 7433,
      "Ġboss": 7434,
      "Ġrefused": 7435,
      "Ġfocuses": 7436,
      "Ġadmired": 7437,
      "Ġmountains": 7438,
      "ĠGrandpa": 7439,
      "67": 7440,
      "Ġhook": 7441,
      "Ġthous": 7442,
      "idate": 7443,
      "Ġoccurs": 7444,
      "Ġcaffeine": 7445,
      "Ġhabits": 7446,
      "Ġshine": 7447,
      "Ġshaking": 7448,
      "Ġcolon": 7449,
      "Ġdefeat": 7450,
      "Ġcorresponding": 7451,
      "Ġmild": 7452,
      "ĠOh": 7453,
      "ĠMike": 7454,
      "open": 7455,
      "Ġfiber": 7456,
      "Ġjumps": 7457,
      "Ġsentient": 7458,
      "Ġgenre": 7459,
      "Ġrust": 7460,
      "Ġraced": 7461,
      "umm": 7462,
      "ĠDepend": 7463,
      "Ġjournal": 7464,
      "ĠDucky": 7465,
      "Ġrepet": 7466,
      "Ġstaying": 7467,
      "Ġgenetic": 7468,
      "Ġtk": 7469,
      "Ġsle": 7470,
      "Ġdied": 7471,
      "Ġshade": 7472,
      "ĠEventually": 7473,
      "Ġcoal": 7474,
      "Ġmeaningful": 7475,
      "Ġcanvas": 7476,
      "Ġcoe": 7477,
      "Ġhumble": 7478,
      "Ġcombat": 7479,
      "Ġpolynom": 7480,
      "Ġstubborn": 7481,
      "Ġfought": 7482,
      "acht": 7483,
      "ements": 7484,
      "Ġperformed": 7485,
      "Cons": 7486,
      "then": 7487,
      "Ġsurf": 7488,
      "Ġminimize": 7489,
      "ael": 7490,
      "Ġsin": 7491,
      "resident": 7492,
      "Ġdivers": 7493,
      "âĸĴâĸĴâĸĴâĸĴ": 7494,
      "Ġmuseum": 7495,
      "sion": 7496,
      "Ġstim": 7497,
      "ĠCr": 7498,
      "ĠChinese": 7499,
      "Ġhairy": 7500,
      "IGHT": 7501,
      "cream": 7502,
      "Ġwidespread": 7503,
      "Additionally": 7504,
      "Ġwarned": 7505,
      "inations": 7506,
      "oosing": 7507,
      "Ġgrammar": 7508,
      "Ġpanda": 7509,
      "Ġobjective": 7510,
      "Ġbroccoli": 7511,
      "Ġschol": 7512,
      "Ġcalculus": 7513,
      "Ġthreads": 7514,
      "Ġpotato": 7515,
      "orty": 7516,
      "ashion": 7517,
      "Ġartist": 7518,
      "number": 7519,
      "Ġreven": 7520,
      "Socket": 7521,
      "Ġignore": 7522,
      "\"]": 7523,
      "Ġshield": 7524,
      "Ġcontents": 7525,
      "Ġmeditation": 7526,
      "Ġsports": 7527,
      "ito": 7528,
      "Ġrows": 7529,
      "ĠDav": 7530,
      "Ġexcess": 7531,
      "ĠUSB": 7532,
      "Ġcryptoc": 7533,
      "reen": 7534,
      "amps": 7535,
      "ĠUbuntu": 7536,
      "Ġbeginner": 7537,
      "Ġvegetable": 7538,
      "ipl": 7539,
      "message": 7540,
      "Ġ22": 7541,
      "Ġshower": 7542,
      "Ġdiscrim": 7543,
      "cut": 7544,
      "asures": 7545,
      "ĠId": 7546,
      "Ġemer": 7547,
      "Ġsungl": 7548,
      "onday": 7549,
      "Ġsteal": 7550,
      "ralized": 7551,
      "Ġoptimal": 7552,
      "Assistant": 7553,
      "max": 7554,
      "ĠKitty": 7555,
      "Ġguarant": 7556,
      "Ġavoc": 7557,
      "elligence": 7558,
      "Ġcontributed": 7559,
      "Ġanxious": 7560,
      "Bl": 7561,
      "Ġearn": 7562,
      "ĠEconom": 7563,
      "âĢĶ": 7564,
      "Ġrolls": 7565,
      "###": 7566,
      "ÅĵLetÃ¢": 7567,
      "Ġsem": 7568,
      "Ġatoms": 7569,
      "Ġbrighter": 7570,
      "Ġfootball": 7571,
      "Ġreaction": 7572,
      "ELE": 7573,
      "LP": 7574,
      "Ġ)": 7575,
      "Ġorbit": 7576,
      "Ġvit": 7577,
      "Ġplanes": 7578,
      "Ġcyl": 7579,
      "Ġattempts": 7580,
      "Ġbacter": 7581,
      "ĠMain": 7582,
      "ĠPractice": 7583,
      "ĠRead": 7584,
      "Ġlisted": 7585,
      "Ġdelay": 7586,
      "Ġimagination": 7587,
      "Ġolive": 7588,
      "Ġcuis": 7589,
      "oubled": 7590,
      "Ġcriteria": 7591,
      "press": 7592,
      "Ġthunder": 7593,
      "Ġserving": 7594,
      "Alice": 7595,
      "Ġillegal": 7596,
      "gust": 7597,
      "ĠJerry": 7598,
      "Ġbadly": 7599,
      "Ġperfectly": 7600,
      "Ġsensitive": 7601,
      "Ġmitigate": 7602,
      "Ġextremely": 7603,
      "Ġsunglasses": 7604,
      "Ġvoid": 7605,
      "anged": 7606,
      "Ġperce": 7607,
      "Ġflute": 7608,
      "emy": 7609,
      "fa": 7610,
      "itoring": 7611,
      "ĠIP": 7612,
      "ĠLight": 7613,
      "ĠOk": 7614,
      "umsy": 7615,
      "Ġenemy": 7616,
      "Ġbelongs": 7617,
      "Ġhelicopter": 7618,
      "Ġhomes": 7619,
      "Ġanyway": 7620,
      "Ġconsists": 7621,
      "Ġrelat": 7622,
      "Ġpresents": 7623,
      "ĠImplement": 7624,
      "Ġexecute": 7625,
      "Ġliterature": 7626,
      "uit": 7627,
      "Ġwhatever": 7628,
      "Ġgloomy": 7629,
      "Ġnative": 7630,
      "ĠTweety": 7631,
      "Ġpigeon": 7632,
      "HE": 7633,
      "Ġcompil": 7634,
      "ĠNemo": 7635,
      "Ġantib": 7636,
      "Ġindustrial": 7637,
      "Ġcouple": 7638,
      "Ġawareness": 7639,
      "Ġconstantly": 7640,
      "MD": 7641,
      "cal": 7642,
      "Ġastr": 7643,
      "Ġfer": 7644,
      "eless": 7645,
      "ĠCreat": 7646,
      "Ġlightweight": 7647,
      "Ġspeeds": 7648,
      "Ġinvestigate": 7649,
      "Ġdiseases": 7650,
      "Set": 7651,
      "Ġcord": 7652,
      "Ġye": 7653,
      "Ġshorter": 7654,
      "ĠWhe": 7655,
      "Ġcompute": 7656,
      "cription": 7657,
      "Ġcontrols": 7658,
      "OT": 7659,
      "Ġbrace": 7660,
      "Ġsteel": 7661,
      "ĠSmith": 7662,
      "Ġthorough": 7663,
      "ĠPaul": 7664,
      "Ġcoco": 7665,
      "Ġwheat": 7666,
      "Ġobserve": 7667,
      "Ġvacu": 7668,
      "uning": 7669,
      "ously": 7670,
      "Ġvehicle": 7671,
      "cm": 7672,
      "Ġsac": 7673,
      "Ġclumsy": 7674,
      "Ġpole": 7675,
      "Ġsunset": 7676,
      "Ġdesigns": 7677,
      "Ġshoe": 7678,
      "related": 7679,
      "Ġglowing": 7680,
      "Ġbehaviors": 7681,
      "Ġcocoa": 7682,
      "rate": 7683,
      "Ġtact": 7684,
      "Ġpale": 7685,
      "ĠIN": 7686,
      "Ġalarm": 7687,
      "ĠUltimately": 7688,
      "Ġentry": 7689,
      "Ġversions": 7690,
      "Ġbreathing": 7691,
      "Ġminimal": 7692,
      "Ġmolecules": 7693,
      "yer": 7694,
      "otion": 7695,
      "Ġrac": 7696,
      "Ġdetection": 7697,
      "Ġprofit": 7698,
      "Ġnecessarily": 7699,
      "03": 7700,
      "iggle": 7701,
      "Ġtrash": 7702,
      "Ġdecorate": 7703,
      "Ġexhib": 7704,
      "oices": 7705,
      "Ġodd": 7706,
      "Ġcrime": 7707,
      "Ġversat": 7708,
      "Ġrecognized": 7709,
      "Ġlicens": 7710,
      "Ġpublished": 7711,
      "Ġfiction": 7712,
      "etary": 7713,
      "Ġprove": 7714,
      "Ġloops": 7715,
      "Ġsetup": 7716,
      "Ġrealize": 7717,
      "rients": 7718,
      "agine": 7719,
      "Ġagent": 7720,
      "Ġstranger": 7721,
      "34": 7722,
      "eros": 7723,
      "Ġdf": 7724,
      "riv": 7725,
      "Ġstrict": 7726,
      "Ġformed": 7727,
      "Ġstudied": 7728,
      "Ġdrivers": 7729,
      "Ġdrawer": 7730,
      "du": 7731,
      "Ġhedge": 7732,
      "Ġvs": 7733,
      "ĠDid": 7734,
      "Ġstickers": 7735,
      "Ġcollege": 7736,
      "Ġflavors": 7737,
      "Ġrib": 7738,
      "Ġpor": 7739,
      "ÅĵThat": 7740,
      "Ġbutterflies": 7741,
      "Ġinnovative": 7742,
      "Ġearthquake": 7743,
      "Ġenvelop": 7744,
      "Ġdisgust": 7745,
      "Ġeaten": 7746,
      "Ġpracticing": 7747,
      "ĠPlan": 7748,
      "Ġgum": 7749,
      "ĠLED": 7750,
      "ogram": 7751,
      "Ġchecked": 7752,
      "Ġairport": 7753,
      "Ġcenturies": 7754,
      "Ġinvesting": 7755,
      "Ġtranslate": 7756,
      "whel": 7757,
      "||": 7758,
      "olt": 7759,
      "87": 7760,
      "Ġgym": 7761,
      "Ġexplicit": 7762,
      "Ġslower": 7763,
      "Ġbatteries": 7764,
      "Ġcritic": 7765,
      "asazi": 7766,
      "Ġpony": 7767,
      "Ġcomputational": 7768,
      "Ġmorality": 7769,
      "color": 7770,
      "game": 7771,
      "oooo": 7772,
      "Ġpean": 7773,
      "Ġends": 7774,
      "Ġentered": 7775,
      "Ġpumpkin": 7776,
      "Ġpoison": 7777,
      "Ġprecise": 7778,
      "Ġremoving": 7779,
      "Ġvehicles": 7780,
      "ĠSouth": 7781,
      "sters": 7782,
      "Ġexplanations": 7783,
      "Ġinterpretation": 7784,
      "Ġjudge": 7785,
      "Ġhypot": 7786,
      "Ġnurse": 7787,
      "tem": 7788,
      "tered": 7789,
      "Ġloll": 7790,
      "blem": 7791,
      "Ġinvestors": 7792,
      "Ġcivilization": 7793,
      "rypted": 7794,
      "ĠRegular": 7795,
      "Sub": 7796,
      "Ġtensor": 7797,
      "inates": 7798,
      "ĠMid": 7799,
      "ĠAnasazi": 7800,
      "Ġcombine": 7801,
      "Ġdepart": 7802,
      "27": 7803,
      "Yay": 7804,
      "ship": 7805,
      "aren": 7806,
      "obby": 7807,
      "astern": 7808,
      "Ġmotivated": 7809,
      "DP": 7810,
      "bu": 7811,
      "gener": 7812,
      "Ġconve": 7813,
      "Ġoverwhel": 7814,
      "Ġwallet": 7815,
      "Ġsignificantly": 7816,
      "Ġlogical": 7817,
      "Ġillustr": 7818,
      "Ġsprink": 7819,
      "File": 7820,
      "itutions": 7821,
      "Ġstom": 7822,
      "chron": 7823,
      "Ġchurch": 7824,
      "Ġoffic": 7825,
      "itches": 7826,
      "Ġwishes": 7827,
      "ryption": 7828,
      "Ġcomplain": 7829,
      "Ġcareless": 7830,
      "ubby": 7831,
      "Ġpossibilities": 7832,
      "Ġmelody": 7833,
      "35": 7834,
      "Because": 7835,
      "hid": 7836,
      "Ġnail": 7837,
      "quare": 7838,
      "ĠFace": 7839,
      "Ġincorrect": 7840,
      "Ġthirsty": 7841,
      "Ġcuisine": 7842,
      "bor": 7843,
      "Ġsandwiches": 7844,
      "ĠAvoid": 7845,
      "Ġmale": 7846,
      "ĠCity": 7847,
      "Ġlollip": 7848,
      "ĠTest": 7849,
      "Ġthus": 7850,
      "ĠMoon": 7851,
      "ĠPolly": 7852,
      "Ġprovider": 7853,
      "Ġownership": 7854,
      "Ġcorpor": 7855,
      "Ġcharge": 7856,
      "ĠAlthough": 7857,
      "alysis": 7858,
      "ĠPlace": 7859,
      "Ġtherap": 7860,
      "ĠSat": 7861,
      "Ġelim": 7862,
      "Ġfireman": 7863,
      "Ġmailbox": 7864,
      "Ġmanipulate": 7865,
      "Ġderivative": 7866,
      "gs": 7867,
      "mas": 7868,
      "atus": 7869,
      "Ġtheme": 7870,
      "Ġnobody": 7871,
      "Ġanimation": 7872,
      "SI": 7873,
      "antum": 7874,
      "opus": 7875,
      "ĠUs": 7876,
      "Ġindeed": 7877,
      "Ġheads": 7878,
      "Ġpure": 7879,
      "eting": 7880,
      "ĠLater": 7881,
      "Ġmeets": 7882,
      "Ġscoop": 7883,
      "cribe": 7884,
      "Ġsparkled": 7885,
      "Ġmatching": 7886,
      "Not": 7887,
      "bage": 7888,
      "ĠPi": 7889,
      "Ġcollar": 7890,
      "ygame": 7891,
      "Ġyacht": 7892,
      "Ġforeign": 7893,
      "ĠChurch": 7894,
      "Ġrepresenting": 7895,
      "Ġbeneficial": 7896,
      "ĠOkay": 7897,
      "Ġlively": 7898,
      "Ġsquirrels": 7899,
      "Ġpenny": 7900,
      "Ġtutorials": 7901,
      "spec": 7902,
      "Ġmug": 7903,
      "Ġpd": 7904,
      "Ġrooms": 7905,
      "Ġuncertain": 7906,
      "ĠcouldnÃ¢": 7907,
      "Mary": 7908,
      "oh": 7909,
      "Ġdwar": 7910,
      "Ġinh": 7911,
      "Ġgoose": 7912,
      "Ġisol": 7913,
      "Ġpra": 7914,
      "ĠInit": 7915,
      "ĠClick": 7916,
      "Ġyawn": 7917,
      "Ġdeaf": 7918,
      "Ġconfusion": 7919,
      "Ġmeters": 7920,
      "Ġchecking": 7921,
      "Reg": 7922,
      "Ġjacket": 7923,
      "Ġprofessionals": 7924,
      "Ġreform": 7925,
      "Ġexit": 7926,
      "Ġcyber": 7927,
      "Ġperiods": 7928,
      "PG": 7929,
      "Ġtap": 7930,
      "ĠBecause": 7931,
      "ĠFire": 7932,
      "Ġthief": 7933,
      "Ġrom": 7934,
      "Ġflame": 7935,
      "Ġlighting": 7936,
      "Ġairplane": 7937,
      "AC": 7938,
      "Ġholiday": 7939,
      "tuce": 7940,
      "vin": 7941,
      "ĠSn": 7942,
      "Ġraven": 7943,
      "ĠLife": 7944,
      "ĠAg": 7945,
      "ĠWord": 7946,
      "Ġchasing": 7947,
      "Ġdespite": 7948,
      "Ġsunflow": 7949,
      "Inst": 7950,
      "Ġmarked": 7951,
      "Ġparrot": 7952,
      "Ġcodes": 7953,
      "Ġliquid": 7954,
      "Ġcrocod": 7955,
      "Ðµ": 7956,
      "Ġpants": 7957,
      "ellect": 7958,
      "ĠChina": 7959,
      "Ġfigures": 7960,
      "Ġclothing": 7961,
      "Ġzebra": 7962,
      "Ġsofa": 7963,
      "agers": 7964,
      "ĠNational": 7965,
      "Ġsmells": 7966,
      "Ġbandage": 7967,
      "Ġtransportation": 7968,
      "ye": 7969,
      "Ġbelt": 7970,
      "alog": 7971,
      "Ġunlock": 7972,
      "ĠNode": 7973,
      "bohydr": 7974,
      "Ġhunting": 7975,
      "Ġcolumns": 7976,
      "UT": 7977,
      "Ġworse": 7978,
      "ĠFocus": 7979,
      "Ġbrings": 7980,
      "Ġsuffering": 7981,
      "Ġregret": 7982,
      "Ġsnugg": 7983,
      "Ġpromoting": 7984,
      "Ġpracticed": 7985,
      "Exception": 7986,
      "Ġincreasingly": 7987,
      "ĠAnnie": 7988,
      "Ġpeeked": 7989,
      "Ġhipp": 7990,
      "Ġrewrite": 7991,
      "Ġvent": 7992,
      "Ġreferences": 7993,
      "ruption": 7994,
      "Daisy": 7995,
      "git": 7996,
      "iance": 7997,
      "Ġwarning": 7998,
      "Ġtooth": 7999,
      "Ġplates": 8000,
      "result": 8001,
      "Ġtrends": 8002,
      "ĠUnfortunately": 8003,
      "Ġhung": 8004,
      "param": 8005,
      "Ġharmless": 8006,
      "Ġfashion": 8007,
      "Ġrug": 8008,
      "Ġexploration": 8009,
      "Ġcrane": 8010,
      "Ġsites": 8011,
      "ĠJapanese": 8012,
      "Ġexhaust": 8013,
      "Ġjewelry": 8014,
      "Ġcompassionate": 8015,
      "Ġfemale": 8016,
      "Ġotter": 8017,
      "doc": 8018,
      "ĠLola": 8019,
      "loat": 8020,
      "Ġcitizens": 8021,
      "mut": 8022,
      "eling": 8023,
      "Ġscan": 8024,
      "Ġskip": 8025,
      "Ġclassification": 8026,
      "Ġchecks": 8027,
      "Ġstrawberry": 8028,
      "annotation": 8029,
      "asion": 8030,
      "Ġoptimized": 8031,
      "Give": 8032,
      "vis": 8033,
      "ributes": 8034,
      "Ġelev": 8035,
      "Ġbuying": 8036,
      "ĠArch": 8037,
      "Ġlabels": 8038,
      "Ġpolitics": 8039,
      "ĠDiffusion": 8040,
      "Ġtech": 8041,
      "Ġstaff": 8042,
      "orem": 8043,
      "ĠMad": 8044,
      "Ġliber": 8045,
      "Ġelaborate": 8046,
      "ĠChar": 8047,
      "Ġsurrounded": 8048,
      "Ġhits": 8049,
      "Ġlux": 8050,
      "Ġink": 8051,
      "Ġneat": 8052,
      "udo": 8053,
      "ĠWork": 8054,
      "Ġaudio": 8055,
      "Ġregardless": 8056,
      "True": 8057,
      "Ġtelevision": 8058,
      "Ph": 8059,
      "ĠTuring": 8060,
      "Ġgir": 8061,
      "Ġspilled": 8062,
      "ĠPot": 8063,
      "Ġslice": 8064,
      "ln": 8065,
      "inity": 8066,
      "Ġspeaking": 8067,
      "ĠJohnson": 8068,
      "Ġfocusing": 8069,
      "Ġmechanical": 8070,
      "Ġpenguin": 8071,
      "Ġtip": 8072,
      "Ġwel": 8073,
      "Ġdu": 8074,
      "ĠLAION": 8075,
      "abul": 8076,
      "Ġchron": 8077,
      "Ġfastest": 8078,
      "Ġstands": 8079,
      "Ġmonkeys": 8080,
      "Ġtheorem": 8081,
      "ĠLim": 8082,
      "pless": 8083,
      "Ġnewsp": 8084,
      "Ġengineer": 8085,
      "forward": 8086,
      "Ġtranslation": 8087,
      "ĠBrownie": 8088,
      "DO": 8089,
      "](": 8090,
      "Ġwider": 8091,
      "Ġants": 8092,
      "Ġattend": 8093,
      "---|": 8094,
      "Ġenvelope": 8095,
      "erable": 8096,
      "Ġdive": 8097,
      "Ġassets": 8098,
      "Ġpassing": 8099,
      "Ġinfinite": 8100,
      "Ġenthusiastic": 8101,
      "ĠUniversity": 8102,
      "({": 8103,
      "fall": 8104,
      "Ġcows": 8105,
      "ĠBear": 8106,
      "Ġgrapes": 8107,
      "Ġslid": 8108,
      "Ġvacation": 8109,
      "Ġshadows": 8110,
      "Ġobstacles": 8111,
      "Ġdug": 8112,
      "elon": 8113,
      "Ġrig": 8114,
      "Ġoverl": 8115,
      "Ġ23": 8116,
      "ĠSpec": 8117,
      "Ġindustries": 8118,
      "Event": 8119,
      "dit": 8120,
      "qrt": 8121,
      "txt": 8122,
      "ĠTre": 8123,
      "Ġaren": 8124,
      "ĠGold": 8125,
      "Ġpeb": 8126,
      "Ġcrash": 8127,
      "Ġpassport": 8128,
      "Ġneighbour": 8129,
      "Ġchords": 8130,
      "Py": 8131,
      "anna": 8132,
      "ĠTechn": 8133,
      "Ġcompile": 8134,
      "ĠJoey": 8135,
      "sk": 8136,
      "Ġbeet": 8137,
      "Ġhappier": 8138,
      "ĠRick": 8139,
      "direct": 8140,
      "Ġfont": 8141,
      "quest": 8142,
      "Ġsurve": 8143,
      "Ġnowhere": 8144,
      "Ġthrowing": 8145,
      "Keep": 8146,
      "mble": 8147,
      "viron": 8148,
      "Ġht": 8149,
      "ĠHun": 8150,
      "Ġconven": 8151,
      "ĠPerson": 8152,
      "active": 8153,
      "Ġquar": 8154,
      "SCII": 8155,
      "Ġostr": 8156,
      "atient": 8157,
      "Ġhoop": 8158,
      "antly": 8159,
      "reeze": 8160,
      "Ġcreators": 8161,
      "Ġcrawl": 8162,
      "Ġcategory": 8163,
      "Val": 8164,
      "Ġraw": 8165,
      "Ġbackup": 8166,
      "grade": 8167,
      "Ġreaching": 8168,
      "Ġgarbage": 8169,
      "ĠLandroid": 8170,
      "Ġsoar": 8171,
      "Ġscope": 8172,
      "ockey": 8173,
      "Ġpretending": 8174,
      "Ġmeasuring": 8175,
      "controll": 8176,
      "Ġyouth": 8177,
      "ĠBaby": 8178,
      "Ġlaund": 8179,
      "Ġcategor": 8180,
      "Ġpist": 8181,
      "Ġbeep": 8182,
      "ifier": 8183,
      "thog": 8184,
      "Ġdefines": 8185,
      "Ġinspiration": 8186,
      "thogonal": 8187,
      "86": 8188,
      "math": 8189,
      "Ġfetch": 8190,
      "omas": 8191
    },
    "merges": [
      [
        "Ġ",
        "t"
      ],
      [
        "h",
        "e"
      ],
      [
        "Ġ",
        "a"
      ],
      [
        "Ġ",
        "s"
      ],
      [
        "i",
        "n"
      ],
      [
        "Ġt",
        "he"
      ],
      [
        "n",
        "d"
      ],
      [
        "Ġ",
        "w"
      ],
      [
        "r",
        "e"
      ],
      [
        "e",
        "r"
      ],
      [
        "Ġ",
        "o"
      ],
      [
        "Ġ",
        "c"
      ],
      [
        "e",
        "d"
      ],
      [
        "Ġa",
        "nd"
      ],
      [
        "Ġ",
        "b"
      ],
      [
        "Ġt",
        "o"
      ],
      [
        "i",
        "t"
      ],
      [
        "a",
        "t"
      ],
      [
        "Ġ",
        "f"
      ],
      [
        "o",
        "u"
      ],
      [
        "a",
        "n"
      ],
      [
        "i",
        "s"
      ],
      [
        "o",
        "r"
      ],
      [
        "o",
        "n"
      ],
      [
        "Ġ",
        "m"
      ],
      [
        "a",
        "s"
      ],
      [
        "Ġ",
        "p"
      ],
      [
        "Ġ",
        "h"
      ],
      [
        "in",
        "g"
      ],
      [
        "Ġ",
        "d"
      ],
      [
        "e",
        "n"
      ],
      [
        "e",
        "s"
      ],
      [
        "Ġ",
        "l"
      ],
      [
        "a",
        "r"
      ],
      [
        "o",
        "m"
      ],
      [
        "a",
        "l"
      ],
      [
        "Ġ",
        "T"
      ],
      [
        "Ġ",
        "in"
      ],
      [
        "l",
        "e"
      ],
      [
        "Ġ",
        "he"
      ],
      [
        "Ġ",
        "g"
      ],
      [
        "i",
        "l"
      ],
      [
        "Ġ",
        "n"
      ],
      [
        "i",
        "m"
      ],
      [
        "a",
        "y"
      ],
      [
        "Ġt",
        "h"
      ],
      [
        "Ġo",
        "f"
      ],
      [
        "u",
        "s"
      ],
      [
        "i",
        "c"
      ],
      [
        "i",
        "d"
      ],
      [
        "Ġw",
        "as"
      ],
      [
        "e",
        "t"
      ],
      [
        "Ġ",
        "y"
      ],
      [
        "Ġ",
        "e"
      ],
      [
        "Ġ",
        "S"
      ],
      [
        "u",
        "t"
      ],
      [
        "e",
        "l"
      ],
      [
        "i",
        "on"
      ],
      [
        "Ġy",
        "ou"
      ],
      [
        "Ġs",
        "t"
      ],
      [
        "an",
        "t"
      ],
      [
        "o",
        "w"
      ],
      [
        "o",
        "t"
      ],
      [
        "Ġ",
        "it"
      ],
      [
        "a",
        "d"
      ],
      [
        "ĠT",
        "he"
      ],
      [
        "a",
        "c"
      ],
      [
        "Ġ",
        "I"
      ],
      [
        "en",
        "t"
      ],
      [
        "v",
        "e"
      ],
      [
        "Ġ",
        "re"
      ],
      [
        "a",
        "m"
      ],
      [
        "Ġb",
        "e"
      ],
      [
        "v",
        "er"
      ],
      [
        "i",
        "r"
      ],
      [
        "r",
        "o"
      ],
      [
        "is",
        "t"
      ],
      [
        "i",
        "g"
      ],
      [
        "Ġ",
        "is"
      ],
      [
        "l",
        "y"
      ],
      [
        "Ġ",
        "H"
      ],
      [
        "Ġth",
        "at"
      ],
      [
        "l",
        "d"
      ],
      [
        "Ġs",
        "a"
      ],
      [
        "it",
        "h"
      ],
      [
        "Ġo",
        "n"
      ],
      [
        "Ġf",
        "or"
      ],
      [
        "Ġw",
        "ith"
      ],
      [
        "Ġh",
        "a"
      ],
      [
        "k",
        "e"
      ],
      [
        "r",
        "i"
      ],
      [
        "e",
        "c"
      ],
      [
        "o",
        "o"
      ],
      [
        "u",
        "n"
      ],
      [
        "as",
        "s"
      ],
      [
        "s",
        "t"
      ],
      [
        "Ġ",
        "\""
      ],
      [
        "p",
        "p"
      ],
      [
        "Ġhe",
        "r"
      ],
      [
        "c",
        "e"
      ],
      [
        "ĠH",
        "e"
      ],
      [
        "Ġs",
        "h"
      ],
      [
        "Ġa",
        "s"
      ],
      [
        "us",
        "er"
      ],
      [
        "Ġa",
        "n"
      ],
      [
        "ĠS",
        "he"
      ],
      [
        "u",
        "l"
      ],
      [
        "ist",
        "ant"
      ],
      [
        "u",
        "r"
      ],
      [
        "ass",
        "istant"
      ],
      [
        "o",
        "l"
      ],
      [
        "Ġ",
        "r"
      ],
      [
        "Ġw",
        "h"
      ],
      [
        "i",
        "f"
      ],
      [
        "Ġ",
        "L"
      ],
      [
        "Ġa",
        "l"
      ],
      [
        "ou",
        "ld"
      ],
      [
        "ĠThe",
        "y"
      ],
      [
        "Ġ",
        "A"
      ],
      [
        "'",
        "s"
      ],
      [
        "Ġp",
        "l"
      ],
      [
        "Ġc",
        "an"
      ],
      [
        "he",
        "r"
      ],
      [
        "Ġ",
        "u"
      ],
      [
        "Ġa",
        "re"
      ],
      [
        "Ġsa",
        "id"
      ],
      [
        "Ġs",
        "o"
      ],
      [
        "c",
        "h"
      ],
      [
        "il",
        "y"
      ],
      [
        "at",
        "ion"
      ],
      [
        "e",
        "nd"
      ],
      [
        "k",
        "ed"
      ],
      [
        "t",
        "er"
      ],
      [
        "Ġw",
        "e"
      ],
      [
        "s",
        "e"
      ],
      [
        "Ġe",
        "x"
      ],
      [
        "Ġ",
        "B"
      ],
      [
        "or",
        "t"
      ],
      [
        "Ġs",
        "he"
      ],
      [
        "a",
        "in"
      ],
      [
        "a",
        "re"
      ],
      [
        "o",
        "re"
      ],
      [
        "im",
        "e"
      ],
      [
        "om",
        "e"
      ],
      [
        "Ġ",
        "O"
      ],
      [
        "a",
        "g"
      ],
      [
        "Ġn",
        "e"
      ],
      [
        "h",
        "t"
      ],
      [
        "Ġh",
        "is"
      ],
      [
        "u",
        "m"
      ],
      [
        "Ġ",
        "M"
      ],
      [
        "Ġ",
        "W"
      ],
      [
        "Ġn",
        "ot"
      ],
      [
        "ver",
        "y"
      ],
      [
        "Ġu",
        "p"
      ],
      [
        "Ġthe",
        "y"
      ],
      [
        "Ġl",
        "i"
      ],
      [
        "or",
        "y"
      ],
      [
        "Ġm",
        "e"
      ],
      [
        "Ġo",
        "r"
      ],
      [
        "Ġd",
        "ay"
      ],
      [
        "Ġc",
        "on"
      ],
      [
        "Ġd",
        "o"
      ],
      [
        "u",
        "re"
      ],
      [
        "il",
        "l"
      ],
      [
        "c",
        "t"
      ],
      [
        "a",
        "b"
      ],
      [
        "id",
        "e"
      ],
      [
        "Ġ",
        "k"
      ],
      [
        "q",
        "u"
      ],
      [
        "Ġpl",
        "ay"
      ],
      [
        "at",
        "e"
      ],
      [
        "T",
        "he"
      ],
      [
        "Ġp",
        "ro"
      ],
      [
        "o",
        "d"
      ],
      [
        "Ġ",
        "us"
      ],
      [
        "p",
        "le"
      ],
      [
        "ĠO",
        "n"
      ],
      [
        "al",
        "l"
      ],
      [
        "Ġh",
        "ad"
      ],
      [
        "Ġyou",
        "r"
      ],
      [
        "el",
        "l"
      ],
      [
        "ou",
        "nd"
      ],
      [
        "Ġ",
        "C"
      ],
      [
        "ac",
        "k"
      ],
      [
        "es",
        "s"
      ],
      [
        "a",
        "ke"
      ],
      [
        "r",
        "om"
      ],
      [
        "r",
        "y"
      ],
      [
        "Ġ",
        "v"
      ],
      [
        "ĠL",
        "ily"
      ],
      [
        "ri",
        "end"
      ],
      [
        "Ġc",
        "om"
      ],
      [
        "Ġha",
        "ve"
      ],
      [
        "Ġs",
        "p"
      ],
      [
        "Ġf",
        "riend"
      ],
      [
        "Ġb",
        "ut"
      ],
      [
        "Ġw",
        "ant"
      ],
      [
        "Ġm",
        "om"
      ],
      [
        "Ġst",
        "ory"
      ],
      [
        "Ġthe",
        "re"
      ],
      [
        "m",
        "y"
      ],
      [
        "es",
        "t"
      ],
      [
        "Ġt",
        "ime"
      ],
      [
        "ar",
        "t"
      ],
      [
        "ĠI",
        "t"
      ],
      [
        "Ġs",
        "e"
      ],
      [
        "er",
        "s"
      ],
      [
        "it",
        "t"
      ],
      [
        "ig",
        "ht"
      ],
      [
        "Ġa",
        "t"
      ],
      [
        "ar",
        "d"
      ],
      [
        "e",
        "m"
      ],
      [
        "Ġha",
        "pp"
      ],
      [
        "am",
        "e"
      ],
      [
        "Ġs",
        "m"
      ],
      [
        "Ġl",
        "o"
      ],
      [
        "Ġs",
        "u"
      ],
      [
        "in",
        "d"
      ],
      [
        "ec",
        "t"
      ],
      [
        "Ġthe",
        "ir"
      ],
      [
        "Ġ",
        "very"
      ],
      [
        "Ġ",
        "Ċ"
      ],
      [
        "Ġc",
        "h"
      ],
      [
        "'",
        "t"
      ],
      [
        "a",
        "nd"
      ],
      [
        "p",
        "l"
      ],
      [
        "Ġl",
        "e"
      ],
      [
        "p",
        "t"
      ],
      [
        "Ġ",
        "j"
      ],
      [
        "ou",
        "t"
      ],
      [
        "itt",
        "le"
      ],
      [
        "Ġhe",
        "l"
      ],
      [
        "Ġl",
        "ittle"
      ],
      [
        "n",
        "t"
      ],
      [
        "o",
        "s"
      ],
      [
        "Ġw",
        "or"
      ],
      [
        "it",
        "e"
      ],
      [
        "Ġg",
        "o"
      ],
      [
        "Ġa",
        "r"
      ],
      [
        "Ġo",
        "ut"
      ],
      [
        "o",
        "p"
      ],
      [
        ".",
        "\""
      ],
      [
        "v",
        "ed"
      ],
      [
        "Ġthe",
        "m"
      ],
      [
        "Ġ",
        "P"
      ],
      [
        "Ġl",
        "oo"
      ],
      [
        "he",
        "n"
      ],
      [
        "e",
        "p"
      ],
      [
        "Ġt",
        "r"
      ],
      [
        "it",
        "y"
      ],
      [
        "i",
        "ve"
      ],
      [
        "Ġal",
        "l"
      ],
      [
        "Ġhel",
        "p"
      ],
      [
        "t",
        "her"
      ],
      [
        "c",
        "k"
      ],
      [
        "Ġb",
        "ig"
      ],
      [
        "u",
        "g"
      ],
      [
        "Ġf",
        "rom"
      ],
      [
        "Ġwe",
        "re"
      ],
      [
        "Ġhapp",
        "y"
      ],
      [
        "Ġc",
        "ould"
      ],
      [
        "Ġ",
        "im"
      ],
      [
        "u",
        "d"
      ],
      [
        "Ġa",
        "b"
      ],
      [
        "a",
        "p"
      ],
      [
        "Ġ",
        "D"
      ],
      [
        "oo",
        "d"
      ],
      [
        "t",
        "h"
      ],
      [
        "Ġc",
        "l"
      ],
      [
        "Ġs",
        "c"
      ],
      [
        "e",
        "re"
      ],
      [
        "Ġ",
        "E"
      ],
      [
        "Ġsa",
        "w"
      ],
      [
        "an",
        "g"
      ],
      [
        "i",
        "es"
      ],
      [
        "i",
        "al"
      ],
      [
        "Ġs",
        "ome"
      ],
      [
        "Ġ",
        "J"
      ],
      [
        "Ġk",
        "n"
      ],
      [
        "ou",
        "g"
      ],
      [
        "us",
        "t"
      ],
      [
        "Y",
        "ou"
      ],
      [
        "!",
        "\""
      ],
      [
        "k",
        "ing"
      ],
      [
        "Ġg",
        "r"
      ],
      [
        "i",
        "z"
      ],
      [
        "Ġb",
        "y"
      ],
      [
        "m",
        "ent"
      ],
      [
        "Ġ",
        "en"
      ],
      [
        "Ġin",
        "t"
      ],
      [
        "Ġm",
        "an"
      ],
      [
        "in",
        "e"
      ],
      [
        "Ġo",
        "ther"
      ],
      [
        "Ġsh",
        "ort"
      ],
      [
        "Ġ",
        "F"
      ],
      [
        "Ġw",
        "ould"
      ],
      [
        "ay",
        "s"
      ],
      [
        "on",
        "e"
      ],
      [
        "Ġto",
        "o"
      ],
      [
        "ĠOn",
        "ce"
      ],
      [
        "ag",
        "e"
      ],
      [
        "Ġb",
        "o"
      ],
      [
        "Ġh",
        "im"
      ],
      [
        "ac",
        "h"
      ],
      [
        "ic",
        "e"
      ],
      [
        "Ġli",
        "ke"
      ],
      [
        "Ġf",
        "un"
      ],
      [
        "Ġd",
        "e"
      ],
      [
        "on",
        "g"
      ],
      [
        "i",
        "le"
      ],
      [
        "re",
        "s"
      ],
      [
        "Ġf",
        "e"
      ],
      [
        "al",
        "ly"
      ],
      [
        "Ġm",
        "ore"
      ],
      [
        "Ġth",
        "is"
      ],
      [
        "ir",
        "l"
      ],
      [
        "ion",
        "s"
      ],
      [
        "Ġp",
        "r"
      ],
      [
        "Ġa",
        "d"
      ],
      [
        "Ġ",
        "ro"
      ],
      [
        "f",
        "ul"
      ],
      [
        "h",
        "at"
      ],
      [
        "Ġ",
        "("
      ],
      [
        "ĠT",
        "im"
      ],
      [
        "i",
        "e"
      ],
      [
        "Ġup",
        "on"
      ],
      [
        "Ġd",
        "id"
      ],
      [
        "Ġg",
        "irl"
      ],
      [
        "u",
        "e"
      ],
      [
        "ar",
        "k"
      ],
      [
        "he",
        "d"
      ],
      [
        "Ġwant",
        "ed"
      ],
      [
        "as",
        "t"
      ],
      [
        "Ġb",
        "r"
      ],
      [
        "ou",
        "s"
      ],
      [
        "i",
        "v"
      ],
      [
        "ac",
        "t"
      ],
      [
        "Ġ",
        "un"
      ],
      [
        "ow",
        "n"
      ],
      [
        "Ġw",
        "ill"
      ],
      [
        "Ġ",
        "You"
      ],
      [
        "Ġ",
        "G"
      ],
      [
        "Ġwh",
        "at"
      ],
      [
        "ab",
        "le"
      ],
      [
        "k",
        "s"
      ],
      [
        "a",
        "v"
      ],
      [
        "ou",
        "r"
      ],
      [
        "Ġm",
        "ake"
      ],
      [
        "Ġb",
        "ack"
      ],
      [
        "et",
        "h"
      ],
      [
        "ing",
        "s"
      ],
      [
        "Ġ",
        "1"
      ],
      [
        "Ġ",
        "R"
      ],
      [
        "ac",
        "e"
      ],
      [
        "Ġim",
        "p"
      ],
      [
        "g",
        "et"
      ],
      [
        "l",
        "ow"
      ],
      [
        "Ġ",
        "qu"
      ],
      [
        "Ġs",
        "im"
      ],
      [
        "p",
        "er"
      ],
      [
        "re",
        "at"
      ],
      [
        "i",
        "re"
      ],
      [
        "Ġm",
        "y"
      ],
      [
        "-",
        "-"
      ],
      [
        "Ġne",
        "w"
      ],
      [
        "or",
        "m"
      ],
      [
        "as",
        "e"
      ],
      [
        "Ġab",
        "out"
      ],
      [
        "ic",
        "h"
      ],
      [
        "?",
        "\""
      ],
      [
        "Ġan",
        "y"
      ],
      [
        "ĠT",
        "h"
      ],
      [
        "Ġ",
        "if"
      ],
      [
        "Ġw",
        "ent"
      ],
      [
        "re",
        "e"
      ],
      [
        "s",
        "ide"
      ],
      [
        "Ġst",
        "art"
      ],
      [
        "s",
        "o"
      ],
      [
        "f",
        "f"
      ],
      [
        "ĠB",
        "en"
      ],
      [
        "Ġfriend",
        "s"
      ],
      [
        "Ġcon",
        "t"
      ],
      [
        "am",
        "ed"
      ],
      [
        "ĠOn",
        "e"
      ],
      [
        "Ġa",
        "g"
      ],
      [
        "il",
        "ed"
      ],
      [
        "Ġm",
        "o"
      ],
      [
        "Ġ",
        "="
      ],
      [
        "Ġon",
        "e"
      ],
      [
        "r",
        "ite"
      ],
      [
        "Ġn",
        "o"
      ],
      [
        "ĠT",
        "om"
      ],
      [
        "Ġwh",
        "o"
      ],
      [
        "l",
        "o"
      ],
      [
        "Ġw",
        "hen"
      ],
      [
        "Ġar",
        "ound"
      ],
      [
        "Ġcom",
        "p"
      ],
      [
        "Ġh",
        "ow"
      ],
      [
        "Ġus",
        "e"
      ],
      [
        "ic",
        "k"
      ],
      [
        "ar",
        "n"
      ],
      [
        "ic",
        "al"
      ],
      [
        "Ġse",
        "e"
      ],
      [
        "ad",
        "e"
      ],
      [
        "Ġg",
        "et"
      ],
      [
        "ul",
        "t"
      ],
      [
        "Ġre",
        "s"
      ],
      [
        "Ġin",
        "c"
      ],
      [
        "b",
        "le"
      ],
      [
        "Ġst",
        "r"
      ],
      [
        "Ġn",
        "amed"
      ],
      [
        "Ġb",
        "ed"
      ],
      [
        "nd",
        "er"
      ],
      [
        "Ġc",
        "o"
      ],
      [
        "Ġne",
        "ed"
      ],
      [
        "Ġp",
        "re"
      ],
      [
        "Ġs",
        "om"
      ],
      [
        "a",
        "ve"
      ],
      [
        "a",
        "k"
      ],
      [
        "el",
        "t"
      ],
      [
        "Ġa",
        "pp"
      ],
      [
        "Ġsp",
        "ec"
      ],
      [
        "Ġsm",
        "iled"
      ],
      [
        "Ġ",
        "ke"
      ],
      [
        "Ġ",
        "N"
      ],
      [
        "if",
        "f"
      ],
      [
        "an",
        "ce"
      ],
      [
        "`",
        "`"
      ],
      [
        "n",
        "e"
      ],
      [
        "at",
        "er"
      ],
      [
        "Ġthe",
        "n"
      ],
      [
        "Ġas",
        "ked"
      ],
      [
        "ation",
        "s"
      ],
      [
        "Ġwh",
        "ich"
      ],
      [
        "Ġd",
        "ec"
      ],
      [
        "Ġh",
        "as"
      ],
      [
        "oug",
        "h"
      ],
      [
        "i",
        "p"
      ],
      [
        "Ġg",
        "ood"
      ],
      [
        "Ġlo",
        "ved"
      ],
      [
        "Ġa",
        "w"
      ],
      [
        "it",
        "ed"
      ],
      [
        "Ġth",
        "an"
      ],
      [
        "Ġc",
        "ar"
      ],
      [
        "Ġe",
        "v"
      ],
      [
        "ir",
        "d"
      ],
      [
        "f",
        "orm"
      ],
      [
        "Ġto",
        "y"
      ],
      [
        "c",
        "c"
      ],
      [
        "x",
        "t"
      ],
      [
        "Ġf",
        "elt"
      ],
      [
        "Ġsim",
        "ple"
      ],
      [
        "ar",
        "y"
      ],
      [
        "en",
        "ce"
      ],
      [
        "Ġbe",
        "c"
      ],
      [
        "Ġo",
        "ver"
      ],
      [
        "is",
        "e"
      ],
      [
        "Ġint",
        "o"
      ],
      [
        "â",
        "Ĥ"
      ],
      [
        "âĤ",
        "¬"
      ],
      [
        "Ġd",
        "iff"
      ],
      [
        "Ġloo",
        "ked"
      ],
      [
        "Ã",
        "¢"
      ],
      [
        "Ġal",
        "so"
      ],
      [
        "ĠTim",
        "my"
      ],
      [
        "o",
        "g"
      ],
      [
        "Ġ",
        "-"
      ],
      [
        "are",
        "d"
      ],
      [
        "p",
        "en"
      ],
      [
        "ĠS",
        "h"
      ],
      [
        "Ġb",
        "et"
      ],
      [
        "he",
        "re"
      ],
      [
        "ĠTh",
        "is"
      ],
      [
        "el",
        "y"
      ],
      [
        "eth",
        "ing"
      ],
      [
        "Ġsu",
        "ch"
      ],
      [
        ",",
        "\""
      ],
      [
        "Ġfriend",
        "ly"
      ],
      [
        "Ġm",
        "ade"
      ],
      [
        "is",
        "h"
      ],
      [
        "Ġle",
        "arn"
      ],
      [
        "Ġsom",
        "ething"
      ],
      [
        "a",
        "x"
      ],
      [
        "an",
        "s"
      ],
      [
        "Ġkn",
        "ow"
      ],
      [
        "g",
        "e"
      ],
      [
        "t",
        "ime"
      ],
      [
        "get",
        "her"
      ],
      [
        "Ġf",
        "ind"
      ],
      [
        "Ġbo",
        "y"
      ],
      [
        "ĠB",
        "ut"
      ],
      [
        "Ġp",
        "e"
      ],
      [
        "ig",
        "n"
      ],
      [
        "ĠW",
        "rite"
      ],
      [
        "in",
        "t"
      ],
      [
        "Ġa",
        "m"
      ],
      [
        "b",
        "er"
      ],
      [
        "Ġ",
        "2"
      ],
      [
        "Ġp",
        "o"
      ],
      [
        "Ġit",
        "s"
      ],
      [
        "res",
        "s"
      ],
      [
        "ct",
        "ion"
      ],
      [
        "Ġb",
        "ird"
      ],
      [
        "Ġm",
        "od"
      ],
      [
        "a",
        "us"
      ],
      [
        "Ġaw",
        "ay"
      ],
      [
        "l",
        "l"
      ],
      [
        "ou",
        "d"
      ],
      [
        "Ġag",
        "ain"
      ],
      [
        "Ġto",
        "gether"
      ],
      [
        "Ġstart",
        "ed"
      ],
      [
        "Ġex",
        "c"
      ],
      [
        "il",
        "d"
      ],
      [
        "Ġd",
        "at"
      ],
      [
        "f",
        "t"
      ],
      [
        "ĠT",
        "ell"
      ],
      [
        "u",
        "ch"
      ],
      [
        "i",
        "a"
      ],
      [
        "Ġt",
        "e"
      ],
      [
        "Ġb",
        "u"
      ],
      [
        "Ġf",
        "ound"
      ],
      [
        "Ġbed",
        "time"
      ],
      [
        "Ġe",
        "ach"
      ],
      [
[...]
